[PAD]
[UNK]
[CLS]
[SEP]
[MASK]
!
"
#
%
&
'
(
)
*
+
,
-
.
/
0
1
2
3
4
5
6
7
8
9
:
;
<
=
>
?
@
[
\
]
^
_
a
b
c
d
e
f
g
h
i
j
k
l
m
n
o
p
q
r
s
t
u
v
w
x
y
z
{
|
}
~
—
’
“
”
…
🎉
🏼
👀
👌
💀
💨
😃
😅
😍
😎
😔
😪
😬
😭
😮
😳
😴
🙌
🤓
🤔
🤝
🤣
🥲
🥵
🥺
🫠
🫣
🫨
##o
##r
##k
##s
##l
##v
##e
##u
##p
##c
##h
##a
##t
##y
##i
##d
##m
##2
##4
##g
##n
##x
##😳
##8
##0
##5
##f
##w
##b
##q
##7
##9
##1
##6
##z
##3
##😮
##j
##😬
##🤓
##😅
##🙌
##🏼
##🥺
##👌
##💨
##😴
##🫠
##😍
##🎉
th
##in
##er
the
##at
##on
##or
##ing
##st
##an
to
##ou
##ed
##en
##es
an
##ll
it
##et
##it
in
##ch
is
##re
##ar
on
##ot
and
##ion
for
##om
##ut
##el
##od
##as
##ow
re
we
you
##ent
##ig
##ct
tr
be
of
##is
##ah
##un
that
lo
##le
se
##ust
##al
##ain
##im
wh
do
ch
st
ok
##ay
##ve
can
##ke
so
##ld
##igh
##id
##ere
##ith
##se
##ur
wor
##am
just
if
##ill
but
with
##ad
su
##ster
ll
##ro
##ss
##ly
##art
not
##all
##one
work
##if
##ce
##oo
##ul
ne
##ate
##ould
ha
train
up
##ight
this
run
li
##po
al
ester
go
me
##ck
get
##ver
##th
mod
##ation
my
ye
##est
##ine
like
##ter
or
have
oh
som
##ee
than
are
im
res
model
con
##cc
##per
fi
part
##ult
##ning
##ally
cod
any
rep
##iz
epo
pl
##fer
##ble
##ore
##ort
che
at
hah
##ction
epoch
code
sh
will
ad
acc
##us
ex
pro
us
##ink
need
upd
ta
un
see
br
pa
##so
think
what
also
result
there
out
##ment
##ok
##pt
lol
loss
some
thank
report
cl
fin
ma
sam
##anch
branch
now
##ic
yeah
##ated
add
##ge
##ctu
all
bas
com
##op
##atch
##ess
good
check
try
as
did
dif
tim
test
ar
how
##hh
po
pus
##il
training
push
fr
le
##00
##ong
##and
##ass
##ize
plot
differ
one
when
still
ab
batch
could
iou
py
##ap
##qu
##ang
##ite
hahah
jere
pr
val
##my
##gh
##ers
##out
##ence
from
jeremy
dat
done
##ting
##ier
##ough
##eth
results
hahaha
got
##ac
class
time
##mb
int
section
epochs
different
cust
was
##nd
##ant
does
sure
should
same
custom
he
more
sim
##ath
##eline
look
running
baseline
no
right
sup
conf
fix
accur
af
fe
high
mo
over
##put
##cu
your
chang
start
using
thanks
bet
dis
hel
has
rn
##up
##day
##end
actu
by
gu
our
##mm
##bm
too
only
best
##rop
##thing
updated
accurac
##cuss
discuss
help
set
use
##pu
##iv
##aram
working
imp
after
actually
accuracy
ever
size
wr
##ys
##ther
cu
other
te
ver
wa
##ect
##ue
##con
##age
##ifier
##oooo
make
lear
classifier
better
every
wait
jon
opt
sa
yes
##ror
##cl
##now
tow
##ound
##athan
discussion
very
jonathan
drop
gpu
id
min
might
tun
would
##ra
##da
then
##oth
unet
##bmit
learning
de
er
know
man
main
qu
##ub
##ack
##fore
##ree
before
whi
new
mean
plots
simcl
error
simclr
ag
hy
per
rate
sp
yup
##umb
##au
##ir
##ied
##na
##orr
its
inst
##ase
about
most
hyper
am
gen
let
low
numb
##ug
##ure
##ive
##der
##gr
read
seed
ester1
haha
exp
update
data
supcon
##aramet
tuning
gener
don
en
free
pi
ve
##ull
##pm
##ist
##ice
today
##eng
been
yea
anyone
take
added
feel
##ause
15
5a
call
dim
sl
want
##ri
##lo
##ving
##ven
##ab
##fre
##be
tho
though
bec
##lement
okay
works
going
someth
models
##cture
custom1
guys
hyperp
something
50
back
cur
cap
fig
gr
may
##ach
##ty
##ie
##stone
##chite
rem
submit
getting
archite
changes
many
capstone
architecture
10
dow
fine
kin
line
nam
ur
win
##uch
##ual
##ast
##act
##til
they
##ung
loop
sequ
##ade
##eep
paper
final
poll
which
##frey
maybe
down
winfrey
16
bit
each
kong
keep
leng
much
ts
##rent
##ai
##az
##ff
thing
them
##orch
##our
##ish
str
##ays
cont
file
cheung
##mentation
into
config
implement
said
sequence
length
tsai
30
both
rand
##sh
##uel
##ag
##able
##int
##erm
input
##read
well
##ention
tried
##idation
##ures
##eeee
anything
prob
progr
finish
pushed
validation
everything
optim
again
##arameter
random
able
fo
far
gon
hid
nice
put
rel
sm
tw
vot
##ead
##cre
##ding
##nn
##ful
these
##ater
##ard
really
refer
requ
doing
okk
alread
under
samuel
pret
heat
tem
##load
current
gonna
voted
already
100
4c
hmm
meth
mention
oop
sch
##rst
##les
##val
##ib
##ways
##orm
##esent
iss
##ign
##ahub
##iment
stu
okok
##uron
##ific
neuron
##periment
first
parts
experiment
used
seem
output
comm
didn
arg
datahub
looks
ide
spe
instead
##ermin
pretty
method
06
5b
hour
lm
later
mess
ooo
rer
send
ty
ton
wow
##king
##dnn
##map
##xt
##ft
##za
##edul
##ense
chu
##ide
##perat
proj
fixed
impro
cudnn
dropout
number
generate
piaz
because
two
heatmap
schedul
lmk
rerun
tonight
piazza
heatmaps
25
89
bu
bt
cre
el
fa
giv
lit
long
made
say
torch
vis
vers
##ru
##rough
##kes
##sed
##pp
##ple
##ible
##den
##ming
##morr
through
tomorr
##esc
ones
##ions
doc
always
image
cons
plan
table
someone
head
confir
cuda
##ounds
hyperparameter
kinda
probab
hidden
related
small
temperat
issue
neurons
seems
idea
methods
scheduler
btw
visual
version
tomorrow
ah
bc
co
eas
even
full
here
lot
ran
sin
util
yet
##ek
##acc
##tle
##ian
##ial
##ating
##sting
##ans
##oup
##ity
ind
weight
week
trans
seg
state
okie
##ify
haven
exact
thinking
find
point
##and3
pred
intere
looking
suppo
higher
write
def
numbers
slow
those
custom1and3
group
name
progress
optimiz
request
okkk
command
spec
hours
else
probably
since
05
1e
20
200
3pm
aver
aug
cause
dou
desc
end
fun
gre
jo
lr
lst
oo
old
ple
pull
ssh
sounds
termin
xian
ying
##ol
##ove
##ks
##emb
##uh
##ail
##mo
##ward
##68
##ous
##ens
##enc
anoth
##arg
once
rest
why
chat
chan
##lder
ohhh
files
repr
master
comp
around
post
poss
doesn
changing
started
##oooooooo
everyone
idk
quest
lower
expl
##istic
thought
linear
##ages
folder
stuff
project
faster
temperature
segmentation
interesting
optimizer
double
descri
lstm
please
another
00
12
768
act
bel
bug
dang
eval
fill
gith
give
ig
ill
lay
last
mat
mis
song
sorr
sign
targ
won
wan
yay
yuh
##ep
##em
##ues
##uction
##com
##cent
##ies
##ire
##ild
##iqu
##ious
##mat
##24
##form
##stra
inter
##chn
##ely
##ason
real
reason
off
where
sol
worse
##ross
worked
gets
##ations
##eee
show
until
pa2
comb
trying
abstra
present
guess
helpful
writ
wrong
techn
option
quite
slight
figure
figures
rememb
download
implemented
finished
reference
currently
build
little
confirm
predi
supposed
augmentation
activ
github
sorry
target
wanna
abstract
remember
224
av
bre
bun
coo
cross
det
ear
fc
had
ke
ker
lab
mb
mid
ow
tm
tas
tys
tense
##ose
##ved
##ves
##pon
##aa
##af
##ace
##ted
##ten
##ick
##me
##nt
##nel
##ory
##etim
incre
forward
format
##ution
true
##leaf
who
step
having
upload
ester2
##thon
ohh
sometim
images
adam
updating
takes
past
##ption
checking
times
##hhh
##ilar
##ility
python
similar
highest
overleaf
while
percent
yupp
install
ready
##arameters
ent
becom
##ieve
kind
mentioned
##ibility
args
improving
##rupt
consist
smaller
slower
specific
function
great
terminal
question
description
believe
matter
techniqu
slightly
brea
fcn
kernel
label
own
tmr
tysm
14
70
88
86
bl
ca
case
emb
lar
mer
mom
mine
mult
mus
np
nan
norm
path
row
sw
sent
siz
sense
vo
went
were
##oot
##lier
##ear
##um
##ubmit
##pl
##pect
##torch
##gg
##geth
##night
##inal
##eres
##ates
togeth
##itting
##itial
isn
##ute
regr
##iginal
##iss
loc
secon
char
##ayay
soft
worri
##amming
subm
##ateg
list
almo
goes
modif
original
resubmit
##ized
##blem
exce
problem
taking
pa3
close
based
basic
comes
ask
pushing
left
difference
above
couldn
pytorch
custom3
few
changed
rnn
quick
means
calling
submitted
strateg
programming
underst
##ificant
experimentation
typo
256
easier
weekend
points
join
##ences
represent
possible
layer
significant
interrupt
prediction
activation
cool
earlier
sometimes
adamw
becomes
large
moment
music
sizes
voc
together
regrade
second
worries
submiss
almost
07
01
300
5e
5c
60
83
99
ass
app
ber
big
blo
cr
cor
cle
cal
cop
cpu
cra
corr
date
ep
et
em
eith
fast
git
hom
hone
js
lim
late
less
match
nod
none
pre
parameter
red
ret
sc
sg
ser
till
txt
way
wif
yoooooooo
##rod
##rain
##sw
##led
##een
##ection
##pat
##co
##hing
##ax
##ault
##tim
##yy
##iple
##mory
##got
##ned
##net
##😳😳
##fect
##fitting
##ween
##boo
##79
##98
##97
##ording
##stly
##stive
top
##ount
##espon
answ
item
##eting
incom
initial
##reed
##rect
##ary
##ared
forgot
##utes
##asing
ref
repo
##ently
##ahah
thats
choo
stat
stop
oki
##urn
##ured
sum
##sterday
note
notation
nothing
##ular
memory
meeting
yesterday
resear
she
shoot
according
##used
ext
uses
needed
pa4
page
##ments
finally
making
makes
adding
comput
checked
abc
##aph
value
##aced
introd
heh
feat
overnight
overfitting
between
##ropy
##ivid
##aramter
cuz
minor
##rastive
dec
decre
agreed
amaz
lowest
expect
enough
151
##rib
hyperparameters
hyperparamter
curious
graph
remo
papers
stride
contrastive
configs
##aging
niceeeee
1000
oops
##ibly
stuck
experiments
argu
##erministic
tyty
improve
rerunning
250
create
created
given
gives
visualize
fully
individ
transfer
default
commands
averaging
##ailable
chance
change
128
combin
writing
available
bunch
deterministic
key
task
increase
formatting
uploaded
technique
embed
merge
sentence
charact
strategies
submission
bert
correct
correspon
etc
either
home
honestly
limit
latest
return
sgd
wifi
##time
incompat
choose
research
introduction
11
26
4b
49
80
ac
aw
aim
ahh
ce
cit
cut
cse
ds
day
div
dra
element
eff
emo
fl
fle
goo
gpt
his
heres
jk
k8
mor
ob
occ
pe
pop
pass
pers
param
q2
rough
rath
sy
sing
sort
scre
uhh
##old
##ring
##rary
##lp
##line
##vis
##vol
##ex
##uc
##ud
##uld
##uation
##pe
##cod
##cess
##are
##ave
##train
##ih
##ially
##ds
##dd
##mend
##max
##mlp
##43
##gn
##ging
##nore
##ness
##xel
##56
##ww
##wor
##brary
##77
##just
##erally
took
##ensh
##esh
##itch
##ote
##utions
##aset
recom
##cting
being
##unk
seq
seen
seeeee
##imal
whate
chart
chunk
##ider
##ame
##illed
without
##ader
##ading
super
notes
happ
trained
runs
runtime
library
##point
meant
myster
yep
##term
order
img
resnet
conver
conda
convol
##perly
coding
anyw
repl
play
##ference
shuld
adjust
properly
needs
seeing
someh
clr
clon
finding
##ici
##ope
##ople
checkpoint
diff
testing
tested
testacc
aren
least
values
dataset
gotten
confused
accurate
move
moving
moved
starting
bestval
besttrain
wrote
text
options
saw
save
minutes
newest
errors
perform
space
instru
mostly
amount
##ugging
export
env
encod
pixel
##enger
150
called
backend
figured
grad
remove
named
names
urs
finalize
things
string
content
contrib
implementation
30pm
optima
references
hmmm
hmmmm
outputs
speed
message
messenger
oooh
projection
literally
confirming
transl
exactly
specify
0556
average
job
##ensive
##ency
restart
compared
possibly
explain
explore
stuffs
001
evaluation
ignore
missed
yayyy
combine
written
confirmed
midi
midterm
whole
percentage
entire
entropy
consistently
matters
break
140
multiple
normal
switch
locally
softmax
modified
except
asked
understand
representation
predictions
assign
clear
copy
json
node
reduction
server
##book
answer
refle
extra
computer
hehe
features
151b
argument
individual
characters
incompatibility
cell
dsmlp
divide
emoj
flex
k8s
morning
people
popular
person
params
roughly
rather
single
screensh
##work
recommend
whatever
convolution
bestvalacc
besttrainacc
instruction
encoder
contributions
screenshot
02
000
17
19
24
21
377
4a
48
51
5pm
67
6pm
75
71
73
82
92
98
aut
aight
bad
bro
bib
bold
catch
dup
ed
fs
fal
fur
found
faced
hr
hard
ip
ive
jok
killed
ld
l2
link
mon
nv
non
net
night
op
odd
pd
pin
pain
pay
pth
port
parameters
ppl
q4
rll
rid
rly
round
rounds
sk
sat
sun
sess
sour
says
tut
term
umm
wd
wed
ya
yall
zo
😮😮
##oon
##ood
##ofre
##red
##rit
##rnn
##know
##sel
##sine
##site
##spect
##sih
##li
##lic
##vide
##eed
##eal
##ever
##ext
##ually
##uming
##ped
##page
##cj
##ced
##ces
##cur
##cul
##cus
##here
##ta
##tal
##ym
##yn
##yayay
##ip
##ior
##iest
##dled
##mod
##20
##47
##ger
##ged
##gle
##gic
##nes
##noon
##neal
##500
##fy
##wing
##bal
##99
##91
##10
##19
##zy
##36
three
theres
##ines
##inom
##inder
##error
##ative
##stant
##ank
##aning
##ance
##anced
total
##oud
anal
anneal
##llo
##its
##ited
ing
incl
ish
##arize
##arant
##arify
force
forum
##owing
rever
weir
##entation
##entially
track
trading
##unch
log
seeee
sto
stor
stand
stack
soon
##iday
worth
sub
suck
summ
suff
sugg
suspect
##cebook
##ooo
never
next
##posite
modify
##ested
respon
respect
constant
five
anyways
##ization
plugging
hahh
share
access
exam
exist
prof
process
proofre
provide
uns
unknow
brute
pa1
pair
##mented
lolol
losses
reporting
clarify
finsih
map
max
magic
sample
##ically
basline
comment
composite
timed
art
##hhhhh
##ilt
friday
prom
print
prior
gotta
##acing
timeout
intro
intention
sections
wasn
shouldn
hello
simult
confli
fixing
fixes
affect
starter
##upy
##endar
##endent
guarant
helped
setting
settle
afternoon
##ysis
team
learned
waiting
saves
mins
minute
tuned
deb
knows
manual
mainly
ago
perfect
spam
yuppp
##iron
##ires
reading
readme
expensive
supconmod
general
generation
generated
dont
pick
wants
wanted
reminder
1679
keeping
context
randomly
randomness
focus
putting
smth
twice
referring
require
requires
templ
issues
common
argue
ideas
062
oooo
ooohh
894
895
built
facebook
giving
saying
torchvis
##escope
consider
planning
temperatures
coll
cover
cosine
easy
easiest
range
indentation
weights
transform
statement
suppose
defin
ended
greater
ooh
##ols
##ails
questions
describe
008
bugs
layers
songrnn
signs
wonder
realized
reasonable
solve
solved
solution
shows
building
predicting
bundled
details
kept
##aaah
##mean
increasing
consistency
specifically
functional
techniques
breaks
labels
blah
care
capt
multinom
nanmean
local
modifed
exceed
understood
representations
interrupting
interrupted
9997
apply
bigger
block
calcul
calendar
crazy
email
preference
yoooooooooooooooo
yooooooooooo
##cogn
item1
initialize
stats
statistic
okiee
sheesh
accordingly
decay
decimal
decreasing
amazon
amazing
expected
removing
combined
correspond
corresponding
260
cutting
google
obs
##ude
happen
runtimeerror
mysterious
imgs
converter
anyway
replace
somehow
##icient
environ
backends
gradescope
translation
restarting
understanding
assignment
reflect
emoji
flexibility
screenshots
broke
duplic
edited
false
hrs
ipyn
joking
nvm
network
open
pdf
pinned
painful
rlly
sunday
session
source
tutor
terms
wdym
wednes
zoom
##current
##balanced
analysis
annealing
weird
summarize
sufficient
suggested
existing
proofread
unknown
finsihed
intentional
conflict
supconmodel
template
torchvision
multinomial
duplicate
ipynb
wednesday
08
099
18
198
28
27
23
2nd
2pm
298
3i
39
31
42
4x
40
45
47
5h
58
5am
520
65
6b
69
61
7e
72
74
78
79
7pm
84
85
800
8pm
95
97
93
9am
aaa
a500
ben
bot
bod
bound
billed
car
cul
cite
crop
coooo
cir
cach
cute
count
came
dr
dom
due
dumb
dist
dri
deep
days
dire
es
eh
ey
ess
ease
fj
fit
fre
fut
fel
fas
fly
fee
fact
gl
gp
gc
gb
gim
gone
gra
gates
gave
hs
hv
hu
hi
hal
hall
hand
hub
hum
hold
ir
ie
jst
jch
jupy
kid
la
ly
len
les
lel
lun
lang
lau
larg
lines
loud
mk
mt
met
must
mone
mass
mist
na
nt
nd
noo
nope
os
ouch
ps
ph
par
pot
pig
pur
pad
pend
pub
pure
psh
q5
q3
que
q10
ro
rot
rent
ris
rap
root
rates
rip
san
sel
sct
sad
squ
site
scu
sir
side
sens
sitting
tb
tin
tal
tall
tight
til
tens
tues
vv
vie
vag
wo
wer
wok
weng
wih
wider
xa
xd
xx
x0
x1
yi
yas
yoo
yoooo
yaaah
zer
zip
👌👌
😍😍
😬😬
😭🙌
😮💨
😳😳
😳😳😳
🙌🏼
🤔🤓
🤣🎉
🫠🫠
##oid
##oic
##ooth
##off
##oard
##oader
##ry
##right
##ric
##ratch
##ress
##rite
##ried
##rase
##ky
##kie
##kward
##kens
##kely
##sing
##sight
##sure
##side
##sibility
##ling
##let
##loo
##lated
##lab
##lish
##lian
##lks
##vs
##vation
##vier
##vant
##vice
##vious
##ean
##epo
##eated
##eung
##eous
##eces
##evs
##uu
##uke
##uper
##uage
##ping
##par
##part
##pass
##ples
##prit
##pendent
##ci
##cing
##cen
##cid
##cse
##cially
##cred
##her
##has
##hent
##hah
##hse
##hap
##hting
##hub
##have
##hensive
##hance
##aah
##ake
##aper
##aus
##aks
##aky
##te
##tes
##tom
##tign
##tem
##tex
##ye
##yon
##ych
##yped
##ix
##iet
##ile
##ily
##ience
##iable
##ipp
##iently
##mp
##ma
##min
##mar
##mul
##more
##mand
##mem
##mits
##22
##298
##291
##400
##479
##443
##ga
##gy
##gan
##ges
##gence
##goooo
##gles
##gible
##gured
##nc
##ny
##nj
##nting
##nage
##nection
##x3
##xity
##x10
##81
##86
##07
##01
##06
##51
##577
##520
##fo
##fe
##full
##fast
##fact
##fix
##writ
##where
##write
##wling
##bs
##back
##board
##71
##747
##94
##96
##14
##62
##61
##679
##39
##31
##ja
##ject
thaks
##inant
##inues
##inates
##initial
##incid
##erion
##erate
##erable
##ervation
their
##ator
##ativ
##atial
##atform
##atically
##orator
##ingful
##sted
##stem
##anation
##ange
##anks
##aneous
tokens
##edits
##edback
##esnting
angles
##llled
##llowing
iter
##etch
##etun
##ition
##itly
##itive
##itable
##ities
##itely
##itance
##itude
##iterion
inval
inform
inference
insight
incred
inher
info
##chs
##chat
##chast
##chines
##chmar
##rele
##recogn
##reci
##rehensive
##remem
##aris
##arily
##otely
forcing
##omatically
##utre
##elf
##eless
##elds
##oduc
##ases
##asible
##owed
reach
react
recent
recogn
recurrent
rewrite
reinitial
youuu
##entif
##entally
##entropy
##ctly
##ctures
trau
trade
triple
behave
beyon
ofc
offer
of97
##ise
##ising
##isation
##iseeee
##isfact
##ahhah
love
lose
loader
loading
sec
sell
seee
seperat
sepe
separ
##aloader
##ains
##ainly
##ima
dokie
chose
choic
chnage
std
stay
stup
stick
states
stdd
##ayy
##ayyayay
cant
soo
soz
##ides
##idly
##identally
##section
##urs
##urb
##urday
wording
words
worry
justify
iffy
within
succ
sucj
suitable
##rol
##sss
##ssss
##arte
workign
##cept
##ool
neeeee
necess
##ateaus
haja
trains
trainer
trainloo
upper
likely
lilian
##pose
##polated
alth
along
alright
esters
gosh
meme
mega
##cked
gettign
##vered
modific
##ationally
mysel
year
yeye
##terion
##terhub
organ
imbalanced
imma
resour
resol
resemb
reshap
concurrent
connection
##cci
partic
##ultation
coded
anytime
anymore
reply
repeated
##izing
epocj
plac
place
placed
platform
plainly
plateaus
##orts
##ortly
##ortant
cheaper
atm
attem
shap
sheee
shared
shoud
shortly
accidentally
##using
excu
usbmit
usual
usually
updates
union
uniqu
unex
unbalanced
unfix
unrecogn
brna
bruh
pasting
paean
pages
resulted
outside
##pty
##pting
somewhere
thankful
thankies
thanksss
clone
finetun
magn
machines
##ics
##ication
##icles
##icitly
yeahh
addition
allowing
allowed
base
come
coming
comap
comple
comments
##essure
##essfull
goodnight
goodness
asap
asking
asks
hows
##iled
##ilities
training96
frame
lead
lemm
leave
leader
leaning
leaky
legible
##anded
differences
abt
batches
couldnt
##quent
hahahahah
priv
pressure
##ghing
dataloader
##etheless
classes
intent
differently
hear
simple
simcse
looked
noon
noice
supremem
confusing
afk
feedback
feasible
highe
highly
overly
overwrit
starts
disco
heloo
hash
##upied
##ended
actual
bypass
byte
gucci
accuracies
discussed
setup
useful
##ivation
important
accuracy99
verify
##ects
##ageable
everyhting
waited
safe
yesss
toward
drops
dropped
dropping
identif
minus
minds
minimal
minima
tune
##race
device
dependent
demand
knowled
manageable
quit
quiet
news
newpage
meaningful
agree
permits
spot
spend
spacing
spatial
itself
ame
letting
##ugs
##ground
reads
seeds
hahaa
expire
express
expanded
generating
generations
generative
enum
ensure
enhance
pip
pieces
pictures
##ulling
##ists
yeaaaah
yeaaah
feeling
15😬
calls
dimens
slice
slides
##loss
##aborator
became
5047
backward
background
grid
remotely
10epo
naming
url
loops
sequences
finalized
whichever
winfreya
##ffed
themsel
##ours
struc
strange
continues
contains
control
30min
##uely
##agged
inputs
##eeeee
##eeeeeee
probable
validation98
optimal
optimistic
against
folks
fogured
following
niceeee
relu
reliable
relativ
smooth
##dings
##ardize
pretrain
temp
10000
mentions
oopss
school
experimenting
seemed
commnet
didnt
065
067
06443
messy
messing
messed
messes
messages
ooohhh
sending
type
wowow
wowww
improves
cudnnple
dropouts
numbered
schedulers
reruns
8907
8914
bump
creating
creative
elise
longer
##ructure
consuming
consultation
header
headers
probabilities
visuals
ahead
ahahhah
cost
colab
coincid
utils
##ialble
indep
index
indeed
segmented
preds
interested
writeup
slowly
groupchat
optimized
057
0543
209
averages
augmented
funny
oohh
oohhh
sshing
terminated
terminating
##6871
ohhhh
ohhhhh
ohhhhhh
reprot
represnting
reproduc
complet
compile
comprehensive
comparis
compiled
posts
posted
doesnt
lowering
explanation
explicitly
thoughtful
projects
interestinggg
0036
0022
12am
1200
768x10
below
filling
filled
matmul
misread
mispl
missing
miserable
songs
yayay
yayayay
##matized
##24747
interval
intersection
office
solves
showing
showed
guessing
guessed
wrongly
technically
downloaded
augmentations
actively
activations
targets
avoid
avialble
coools
crossentropy
early
tasks
##aaa
##ntax
whoever
sometime
paste
pythonhas
similarly
installing
installed
become
consistent
breaking
tmrw
86400
8662
blank
blanks
blurb
caused
embrace
merged
normally
rows
swa
swap
##pected
chars
resubmitted
closest
basically
strategy
typos
256x3
joined
cools
momentum
seconds
submissions
071
0186
01520
0194
3000
9931
assuming
appear
appreci
blog
blobs
crank
crunch
credits
criterion
cleaning
copied
crawling
cracked
epco
empty
jsut
matching
matched
nodes
previous
scrupt
scary
scratch
science
serve
##😳😳😳
##books
##97479
answers
item2
initialization
initialisation
##ahahahah
stops
okieee
okieeeee
notebook
notebooks
extended
computationally
feature
decrease
decreases
##ribution
graphs
graphics
removed
removes
niceeeeee
arguing
tytyty
improvement
improvements
individually
combining
combination
embeddings
character
correctly
limits
returns
incompatible
1136
2619
across
accept
acivation
aws
awkward
awake
ahhhh
citet
citation
citations
cutoff
draw
draft
drawing
effect
effici
efforts
fluke
flipp
flagged
goofy
gpt2
object
occupy
occurs
occupied
passing
sync
system
syntax
uhhhhh
uhhhhhhh
##linear
##vised
##ucinates
##uded
##pecially
##4391
happens
mystery
convergence
anywhere
replacing
playing
somehting
cloning
cloned
clones
findings
texts
graded
translate
explaining
explainable
yayyyy
breakfast
normalization
switching
switched
clearpage
answering
reflecting
extrapolated
heheh
emojis
flexible
personal
personally
recommended
0219
0005
00001
192
512
737
988
authent
automatically
bibtex
bolded
further
month
monday
nonetheless
nonlinear
portion
portions
sketch
skulling
satisfact
saturday
ummmm
😮😮😮
##yayayayy
include
included
forums
revert
reverse
logistic
stole
stochast
stored
storage
stands
standardize
stacking
stacked
subpart
sucks
response
responsibility
respective
hahha
hahhahahahah
example
examples
unset
unsuper
pairs
clarifying
articles
artists
prompt
promising
priority
simultaneous
affects
guarantee
guaranteed
debug
debugging
perfecto
picking
requirement
0627
8942
8944
8952
8957
considering
considered
collect
collaborator
covering
transformers
transformations
defining
definitely
0089
wondering
solution🥺
captive
captures
exceeds
exceeded
calculate
calculation
statistics
statistical
obscen
observation
happened
environment
conflicts
085
183
2706
4x4
5hours
520pm
692
aaaaaa
a5000
benchmar
bottom
body
carried
culprit
coooools
cirterion
cache
drugs
dominant
distribution
driver
directly
especially
eyes
essentially
frequent
future
felt
fasic
flying
glad
gpus
gimme
grab
hsould
huhhhhh
half
hallucinates
handle
human
irrele
jcheung
jupyterhub
kidding
launch
lyk
leniently
lesgoooo
lunar
language
laughing
largely
mknj
metric
money
massive
mistyped
naiseeee
ntg
noob
ouchy
psych
phrase
potentially
piggy
purpose
padding
pending
publish
purely
pshed
queue
rollled
rotation
risk
rapidly
sanity
selects
sctructure
square
scuffed
sensitive
tbd
tiny
talk
tenses
viewing
vaguely
woah
weren
wokring
wiht
xavier
yields
yasssss
yooooo
yaaahhh
zero
😍😍😍
😭🙌🏼
😮💨😴
😳😳😳😳😳😳
🤔🤓😅
🫠🫠🫠
##hseed
##29897479
##2916871
##814391
##57751
##6792916871
invalid
information
insights
incredibly
inheritance
reaches
recognize
reinitializing
traumatized
beyond
seperately
sepearte
separate
choices
stupid
stddevs
##ayyayayyayayayy
successfull
workignon
neeeeeeeeeeee
necessarily
trainloop
although
memeory
modifications
myself
organize
resources
resolving
resembles
reshaping
concurrently
particular
places
attempting
shape
sheeeesh
shoudl
excuse
unique
unexpected
unfixable
unrecognized
brnach
finetune
magnitude
comapred
complexity
framework
lemme
leaderboard
private
noiceeee
overwrites
discovered
towards
identified
mindset
knowledge
expirements
expressed
enumerate
enhancements
dimension
10epochs
themselves
strucutre
30minutes
relatively
smoothly
pretrained
064436792916871
wowwwww
cudnnplease
ahahhaha
coincidence
independent
05432
reproducible
completed
comparison
interestinggggg
misplaced
yayayayayyayayyayayayy
##24747814391
crossentropyloss
pythonhashseed
256x3500
018624747814391
0152029897479
appreciate
epcosh
acceptable
efficiency
flipping
occupying
authentication
satisfactory
stochastic
subparts
unsupervised
simultaneously
obscene
benchmark
irrelevant
mknjtes
naiseeeeee
psyching
published
successfully
neeeeeeeeeeeeed
06443679291687161
01862474781439139
015202989747957751
