{
  "version": "1.0",
  "truncation": null,
  "padding": null,
  "added_tokens": [
    {
      "id": 0,
      "content": "[PAD]",
      "single_word": false,
      "lstrip": false,
      "rstrip": false,
      "normalized": false,
      "special": true
    },
    {
      "id": 1,
      "content": "[UNK]",
      "single_word": false,
      "lstrip": false,
      "rstrip": false,
      "normalized": false,
      "special": true
    },
    {
      "id": 2,
      "content": "[CLS]",
      "single_word": false,
      "lstrip": false,
      "rstrip": false,
      "normalized": false,
      "special": true
    },
    {
      "id": 3,
      "content": "[SEP]",
      "single_word": false,
      "lstrip": false,
      "rstrip": false,
      "normalized": false,
      "special": true
    },
    {
      "id": 4,
      "content": "[MASK]",
      "single_word": false,
      "lstrip": false,
      "rstrip": false,
      "normalized": false,
      "special": true
    }
  ],
  "normalizer": {
    "type": "BertNormalizer",
    "clean_text": true,
    "handle_chinese_chars": true,
    "strip_accents": null,
    "lowercase": true
  },
  "pre_tokenizer": {
    "type": "BertPreTokenizer"
  },
  "post_processor": {
    "type": "TemplateProcessing",
    "single": [
      {
        "SpecialToken": {
          "id": "[CLS]",
          "type_id": 0
        }
      },
      {
        "Sequence": {
          "id": "A",
          "type_id": 0
        }
      },
      {
        "SpecialToken": {
          "id": "[SEP]",
          "type_id": 0
        }
      }
    ],
    "pair": [
      {
        "SpecialToken": {
          "id": "[CLS]",
          "type_id": 0
        }
      },
      {
        "Sequence": {
          "id": "A",
          "type_id": 0
        }
      },
      {
        "SpecialToken": {
          "id": "[SEP]",
          "type_id": 0
        }
      },
      {
        "Sequence": {
          "id": "B",
          "type_id": 1
        }
      },
      {
        "SpecialToken": {
          "id": "[SEP]",
          "type_id": 1
        }
      }
    ],
    "special_tokens": {
      "[CLS]": {
        "id": "[CLS]",
        "ids": [
          2
        ],
        "tokens": [
          "[CLS]"
        ]
      },
      "[SEP]": {
        "id": "[SEP]",
        "ids": [
          3
        ],
        "tokens": [
          "[SEP]"
        ]
      }
    }
  },
  "decoder": {
    "type": "WordPiece",
    "prefix": "##",
    "cleanup": true
  },
  "model": {
    "type": "WordPiece",
    "unk_token": "[UNK]",
    "continuing_subword_prefix": "##",
    "max_input_chars_per_word": 100,
    "vocab": {
      "[PAD]": 0,
      "[UNK]": 1,
      "[CLS]": 2,
      "[SEP]": 3,
      "[MASK]": 4,
      "!": 5,
      "\"": 6,
      "#": 7,
      "%": 8,
      "&": 9,
      "'": 10,
      "(": 11,
      ")": 12,
      "*": 13,
      "+": 14,
      ",": 15,
      "-": 16,
      ".": 17,
      "/": 18,
      "0": 19,
      "1": 20,
      "2": 21,
      "3": 22,
      "4": 23,
      "5": 24,
      "6": 25,
      "7": 26,
      "8": 27,
      "9": 28,
      ":": 29,
      ";": 30,
      "<": 31,
      "=": 32,
      ">": 33,
      "?": 34,
      "@": 35,
      "[": 36,
      "\\": 37,
      "]": 38,
      "^": 39,
      "_": 40,
      "a": 41,
      "b": 42,
      "c": 43,
      "d": 44,
      "e": 45,
      "f": 46,
      "g": 47,
      "h": 48,
      "i": 49,
      "j": 50,
      "k": 51,
      "l": 52,
      "m": 53,
      "n": 54,
      "o": 55,
      "p": 56,
      "q": 57,
      "r": 58,
      "s": 59,
      "t": 60,
      "u": 61,
      "v": 62,
      "w": 63,
      "x": 64,
      "y": 65,
      "z": 66,
      "{": 67,
      "|": 68,
      "}": 69,
      "~": 70,
      "—": 71,
      "’": 72,
      "“": 73,
      "”": 74,
      "…": 75,
      "🎉": 76,
      "🏼": 77,
      "👀": 78,
      "👌": 79,
      "💀": 80,
      "💨": 81,
      "😃": 82,
      "😅": 83,
      "😍": 84,
      "😎": 85,
      "😔": 86,
      "😪": 87,
      "😬": 88,
      "😭": 89,
      "😮": 90,
      "😳": 91,
      "😴": 92,
      "🙌": 93,
      "🤓": 94,
      "🤔": 95,
      "🤝": 96,
      "🤣": 97,
      "🥲": 98,
      "🥵": 99,
      "🥺": 100,
      "🫠": 101,
      "🫣": 102,
      "🫨": 103,
      "##o": 104,
      "##r": 105,
      "##k": 106,
      "##s": 107,
      "##l": 108,
      "##v": 109,
      "##e": 110,
      "##u": 111,
      "##p": 112,
      "##c": 113,
      "##h": 114,
      "##a": 115,
      "##t": 116,
      "##y": 117,
      "##i": 118,
      "##d": 119,
      "##m": 120,
      "##2": 121,
      "##4": 122,
      "##g": 123,
      "##n": 124,
      "##x": 125,
      "##😳": 126,
      "##8": 127,
      "##0": 128,
      "##5": 129,
      "##f": 130,
      "##w": 131,
      "##b": 132,
      "##q": 133,
      "##7": 134,
      "##9": 135,
      "##1": 136,
      "##6": 137,
      "##z": 138,
      "##3": 139,
      "##😮": 140,
      "##j": 141,
      "##😬": 142,
      "##🤓": 143,
      "##😅": 144,
      "##🙌": 145,
      "##🏼": 146,
      "##🥺": 147,
      "##👌": 148,
      "##💨": 149,
      "##😴": 150,
      "##🫠": 151,
      "##😍": 152,
      "##🎉": 153,
      "th": 154,
      "##in": 155,
      "##er": 156,
      "the": 157,
      "##at": 158,
      "##on": 159,
      "##or": 160,
      "##ing": 161,
      "##st": 162,
      "##an": 163,
      "to": 164,
      "##ou": 165,
      "##ed": 166,
      "##en": 167,
      "##es": 168,
      "an": 169,
      "##ll": 170,
      "it": 171,
      "##et": 172,
      "##it": 173,
      "in": 174,
      "##ch": 175,
      "is": 176,
      "##re": 177,
      "##ar": 178,
      "on": 179,
      "##ot": 180,
      "and": 181,
      "##ion": 182,
      "for": 183,
      "##om": 184,
      "##ut": 185,
      "##el": 186,
      "##od": 187,
      "##as": 188,
      "##ow": 189,
      "re": 190,
      "we": 191,
      "you": 192,
      "##ent": 193,
      "##ig": 194,
      "##ct": 195,
      "tr": 196,
      "be": 197,
      "of": 198,
      "##is": 199,
      "##ah": 200,
      "##un": 201,
      "that": 202,
      "lo": 203,
      "##le": 204,
      "se": 205,
      "##ust": 206,
      "##al": 207,
      "##ain": 208,
      "##im": 209,
      "wh": 210,
      "do": 211,
      "ch": 212,
      "st": 213,
      "ok": 214,
      "##ay": 215,
      "##ve": 216,
      "can": 217,
      "##ke": 218,
      "so": 219,
      "##ld": 220,
      "##igh": 221,
      "##id": 222,
      "##ere": 223,
      "##ith": 224,
      "##se": 225,
      "##ur": 226,
      "wor": 227,
      "##am": 228,
      "just": 229,
      "if": 230,
      "##ill": 231,
      "but": 232,
      "with": 233,
      "##ad": 234,
      "su": 235,
      "##ster": 236,
      "ll": 237,
      "##ro": 238,
      "##ss": 239,
      "##ly": 240,
      "##art": 241,
      "not": 242,
      "##all": 243,
      "##one": 244,
      "work": 245,
      "##if": 246,
      "##ce": 247,
      "##oo": 248,
      "##ul": 249,
      "ne": 250,
      "##ate": 251,
      "##ould": 252,
      "ha": 253,
      "train": 254,
      "up": 255,
      "##ight": 256,
      "this": 257,
      "run": 258,
      "li": 259,
      "##po": 260,
      "al": 261,
      "ester": 262,
      "go": 263,
      "me": 264,
      "##ck": 265,
      "get": 266,
      "##ver": 267,
      "##th": 268,
      "mod": 269,
      "##ation": 270,
      "my": 271,
      "ye": 272,
      "##est": 273,
      "##ine": 274,
      "like": 275,
      "##ter": 276,
      "or": 277,
      "have": 278,
      "oh": 279,
      "som": 280,
      "##ee": 281,
      "than": 282,
      "are": 283,
      "im": 284,
      "res": 285,
      "model": 286,
      "con": 287,
      "##cc": 288,
      "##per": 289,
      "fi": 290,
      "part": 291,
      "##ult": 292,
      "##ning": 293,
      "##ally": 294,
      "cod": 295,
      "any": 296,
      "rep": 297,
      "##iz": 298,
      "epo": 299,
      "pl": 300,
      "##fer": 301,
      "##ble": 302,
      "##ore": 303,
      "##ort": 304,
      "che": 305,
      "at": 306,
      "hah": 307,
      "##ction": 308,
      "epoch": 309,
      "code": 310,
      "sh": 311,
      "will": 312,
      "ad": 313,
      "acc": 314,
      "##us": 315,
      "ex": 316,
      "pro": 317,
      "us": 318,
      "##ink": 319,
      "need": 320,
      "upd": 321,
      "ta": 322,
      "un": 323,
      "see": 324,
      "br": 325,
      "pa": 326,
      "##so": 327,
      "think": 328,
      "what": 329,
      "also": 330,
      "result": 331,
      "there": 332,
      "out": 333,
      "##ment": 334,
      "##ok": 335,
      "##pt": 336,
      "lol": 337,
      "loss": 338,
      "some": 339,
      "thank": 340,
      "report": 341,
      "cl": 342,
      "fin": 343,
      "ma": 344,
      "sam": 345,
      "##anch": 346,
      "branch": 347,
      "now": 348,
      "##ic": 349,
      "yeah": 350,
      "##ated": 351,
      "add": 352,
      "##ge": 353,
      "##ctu": 354,
      "all": 355,
      "bas": 356,
      "com": 357,
      "##op": 358,
      "##atch": 359,
      "##ess": 360,
      "good": 361,
      "check": 362,
      "try": 363,
      "as": 364,
      "did": 365,
      "dif": 366,
      "tim": 367,
      "test": 368,
      "ar": 369,
      "how": 370,
      "##hh": 371,
      "po": 372,
      "pus": 373,
      "##il": 374,
      "training": 375,
      "push": 376,
      "fr": 377,
      "le": 378,
      "##00": 379,
      "##ong": 380,
      "##and": 381,
      "##ass": 382,
      "##ize": 383,
      "plot": 384,
      "differ": 385,
      "one": 386,
      "when": 387,
      "still": 388,
      "ab": 389,
      "batch": 390,
      "could": 391,
      "iou": 392,
      "py": 393,
      "##ap": 394,
      "##qu": 395,
      "##ang": 396,
      "##ite": 397,
      "hahah": 398,
      "jere": 399,
      "pr": 400,
      "val": 401,
      "##my": 402,
      "##gh": 403,
      "##ers": 404,
      "##out": 405,
      "##ence": 406,
      "from": 407,
      "jeremy": 408,
      "dat": 409,
      "done": 410,
      "##ting": 411,
      "##ier": 412,
      "##ough": 413,
      "##eth": 414,
      "results": 415,
      "hahaha": 416,
      "got": 417,
      "##ac": 418,
      "class": 419,
      "time": 420,
      "##mb": 421,
      "int": 422,
      "section": 423,
      "epochs": 424,
      "different": 425,
      "cust": 426,
      "was": 427,
      "##nd": 428,
      "##ant": 429,
      "does": 430,
      "sure": 431,
      "should": 432,
      "same": 433,
      "custom": 434,
      "he": 435,
      "more": 436,
      "sim": 437,
      "##ath": 438,
      "##eline": 439,
      "look": 440,
      "running": 441,
      "baseline": 442,
      "no": 443,
      "right": 444,
      "sup": 445,
      "conf": 446,
      "fix": 447,
      "accur": 448,
      "af": 449,
      "fe": 450,
      "high": 451,
      "mo": 452,
      "over": 453,
      "##put": 454,
      "##cu": 455,
      "your": 456,
      "chang": 457,
      "start": 458,
      "using": 459,
      "thanks": 460,
      "bet": 461,
      "dis": 462,
      "hel": 463,
      "has": 464,
      "rn": 465,
      "##up": 466,
      "##day": 467,
      "##end": 468,
      "actu": 469,
      "by": 470,
      "gu": 471,
      "our": 472,
      "##mm": 473,
      "##bm": 474,
      "too": 475,
      "only": 476,
      "best": 477,
      "##rop": 478,
      "##thing": 479,
      "updated": 480,
      "accurac": 481,
      "##cuss": 482,
      "discuss": 483,
      "help": 484,
      "set": 485,
      "use": 486,
      "##pu": 487,
      "##iv": 488,
      "##aram": 489,
      "working": 490,
      "imp": 491,
      "after": 492,
      "actually": 493,
      "accuracy": 494,
      "ever": 495,
      "size": 496,
      "wr": 497,
      "##ys": 498,
      "##ther": 499,
      "cu": 500,
      "other": 501,
      "te": 502,
      "ver": 503,
      "wa": 504,
      "##ect": 505,
      "##ue": 506,
      "##con": 507,
      "##age": 508,
      "##ifier": 509,
      "##oooo": 510,
      "make": 511,
      "lear": 512,
      "classifier": 513,
      "better": 514,
      "every": 515,
      "wait": 516,
      "jon": 517,
      "opt": 518,
      "sa": 519,
      "yes": 520,
      "##ror": 521,
      "##cl": 522,
      "##now": 523,
      "tow": 524,
      "##ound": 525,
      "##athan": 526,
      "discussion": 527,
      "very": 528,
      "jonathan": 529,
      "drop": 530,
      "gpu": 531,
      "id": 532,
      "min": 533,
      "might": 534,
      "tun": 535,
      "would": 536,
      "##ra": 537,
      "##da": 538,
      "then": 539,
      "##oth": 540,
      "unet": 541,
      "##bmit": 542,
      "learning": 543,
      "de": 544,
      "er": 545,
      "know": 546,
      "man": 547,
      "main": 548,
      "qu": 549,
      "##ub": 550,
      "##ack": 551,
      "##fore": 552,
      "##ree": 553,
      "before": 554,
      "whi": 555,
      "new": 556,
      "mean": 557,
      "plots": 558,
      "simcl": 559,
      "error": 560,
      "simclr": 561,
      "ag": 562,
      "hy": 563,
      "per": 564,
      "rate": 565,
      "sp": 566,
      "yup": 567,
      "##umb": 568,
      "##au": 569,
      "##ir": 570,
      "##ied": 571,
      "##na": 572,
      "##orr": 573,
      "its": 574,
      "inst": 575,
      "##ase": 576,
      "about": 577,
      "most": 578,
      "hyper": 579,
      "am": 580,
      "gen": 581,
      "let": 582,
      "low": 583,
      "numb": 584,
      "##ug": 585,
      "##ure": 586,
      "##ive": 587,
      "##der": 588,
      "##gr": 589,
      "read": 590,
      "seed": 591,
      "ester1": 592,
      "haha": 593,
      "exp": 594,
      "update": 595,
      "data": 596,
      "supcon": 597,
      "##aramet": 598,
      "tuning": 599,
      "gener": 600,
      "don": 601,
      "en": 602,
      "free": 603,
      "pi": 604,
      "ve": 605,
      "##ull": 606,
      "##pm": 607,
      "##ist": 608,
      "##ice": 609,
      "today": 610,
      "##eng": 611,
      "been": 612,
      "yea": 613,
      "anyone": 614,
      "take": 615,
      "added": 616,
      "feel": 617,
      "##ause": 618,
      "15": 619,
      "5a": 620,
      "call": 621,
      "dim": 622,
      "sl": 623,
      "want": 624,
      "##ri": 625,
      "##lo": 626,
      "##ving": 627,
      "##ven": 628,
      "##ab": 629,
      "##fre": 630,
      "##be": 631,
      "tho": 632,
      "though": 633,
      "bec": 634,
      "##lement": 635,
      "okay": 636,
      "works": 637,
      "going": 638,
      "someth": 639,
      "models": 640,
      "##cture": 641,
      "custom1": 642,
      "guys": 643,
      "hyperp": 644,
      "something": 645,
      "50": 646,
      "back": 647,
      "cur": 648,
      "cap": 649,
      "fig": 650,
      "gr": 651,
      "may": 652,
      "##ach": 653,
      "##ty": 654,
      "##ie": 655,
      "##stone": 656,
      "##chite": 657,
      "rem": 658,
      "submit": 659,
      "getting": 660,
      "archite": 661,
      "changes": 662,
      "many": 663,
      "capstone": 664,
      "architecture": 665,
      "10": 666,
      "dow": 667,
      "fine": 668,
      "kin": 669,
      "line": 670,
      "nam": 671,
      "ur": 672,
      "win": 673,
      "##uch": 674,
      "##ual": 675,
      "##ast": 676,
      "##act": 677,
      "##til": 678,
      "they": 679,
      "##ung": 680,
      "loop": 681,
      "sequ": 682,
      "##ade": 683,
      "##eep": 684,
      "paper": 685,
      "final": 686,
      "poll": 687,
      "which": 688,
      "##frey": 689,
      "maybe": 690,
      "down": 691,
      "winfrey": 692,
      "16": 693,
      "bit": 694,
      "each": 695,
      "kong": 696,
      "keep": 697,
      "leng": 698,
      "much": 699,
      "ts": 700,
      "##rent": 701,
      "##ai": 702,
      "##az": 703,
      "##ff": 704,
      "thing": 705,
      "them": 706,
      "##orch": 707,
      "##our": 708,
      "##ish": 709,
      "str": 710,
      "##ays": 711,
      "cont": 712,
      "file": 713,
      "cheung": 714,
      "##mentation": 715,
      "into": 716,
      "config": 717,
      "implement": 718,
      "said": 719,
      "sequence": 720,
      "length": 721,
      "tsai": 722,
      "30": 723,
      "both": 724,
      "rand": 725,
      "##sh": 726,
      "##uel": 727,
      "##ag": 728,
      "##able": 729,
      "##int": 730,
      "##erm": 731,
      "input": 732,
      "##read": 733,
      "well": 734,
      "##ention": 735,
      "tried": 736,
      "##idation": 737,
      "##ures": 738,
      "##eeee": 739,
      "anything": 740,
      "prob": 741,
      "progr": 742,
      "finish": 743,
      "pushed": 744,
      "validation": 745,
      "everything": 746,
      "optim": 747,
      "again": 748,
      "##arameter": 749,
      "random": 750,
      "able": 751,
      "fo": 752,
      "far": 753,
      "gon": 754,
      "hid": 755,
      "nice": 756,
      "put": 757,
      "rel": 758,
      "sm": 759,
      "tw": 760,
      "vot": 761,
      "##ead": 762,
      "##cre": 763,
      "##ding": 764,
      "##nn": 765,
      "##ful": 766,
      "these": 767,
      "##ater": 768,
      "##ard": 769,
      "really": 770,
      "refer": 771,
      "requ": 772,
      "doing": 773,
      "okk": 774,
      "alread": 775,
      "under": 776,
      "samuel": 777,
      "pret": 778,
      "heat": 779,
      "tem": 780,
      "##load": 781,
      "current": 782,
      "gonna": 783,
      "voted": 784,
      "already": 785,
      "100": 786,
      "4c": 787,
      "hmm": 788,
      "meth": 789,
      "mention": 790,
      "oop": 791,
      "sch": 792,
      "##rst": 793,
      "##les": 794,
      "##val": 795,
      "##ib": 796,
      "##ways": 797,
      "##orm": 798,
      "##esent": 799,
      "iss": 800,
      "##ign": 801,
      "##ahub": 802,
      "##iment": 803,
      "stu": 804,
      "okok": 805,
      "##uron": 806,
      "##ific": 807,
      "neuron": 808,
      "##periment": 809,
      "first": 810,
      "parts": 811,
      "experiment": 812,
      "used": 813,
      "seem": 814,
      "output": 815,
      "comm": 816,
      "didn": 817,
      "arg": 818,
      "datahub": 819,
      "looks": 820,
      "ide": 821,
      "spe": 822,
      "instead": 823,
      "##ermin": 824,
      "pretty": 825,
      "method": 826,
      "06": 827,
      "5b": 828,
      "hour": 829,
      "lm": 830,
      "later": 831,
      "mess": 832,
      "ooo": 833,
      "rer": 834,
      "send": 835,
      "ty": 836,
      "ton": 837,
      "wow": 838,
      "##king": 839,
      "##dnn": 840,
      "##map": 841,
      "##xt": 842,
      "##ft": 843,
      "##za": 844,
      "##edul": 845,
      "##ense": 846,
      "chu": 847,
      "##ide": 848,
      "##perat": 849,
      "proj": 850,
      "fixed": 851,
      "impro": 852,
      "cudnn": 853,
      "dropout": 854,
      "number": 855,
      "generate": 856,
      "piaz": 857,
      "because": 858,
      "two": 859,
      "heatmap": 860,
      "schedul": 861,
      "lmk": 862,
      "rerun": 863,
      "tonight": 864,
      "piazza": 865,
      "heatmaps": 866,
      "25": 867,
      "89": 868,
      "bu": 869,
      "bt": 870,
      "cre": 871,
      "el": 872,
      "fa": 873,
      "giv": 874,
      "lit": 875,
      "long": 876,
      "made": 877,
      "say": 878,
      "torch": 879,
      "vis": 880,
      "vers": 881,
      "##ru": 882,
      "##rough": 883,
      "##kes": 884,
      "##sed": 885,
      "##pp": 886,
      "##ple": 887,
      "##ible": 888,
      "##den": 889,
      "##ming": 890,
      "##morr": 891,
      "through": 892,
      "tomorr": 893,
      "##esc": 894,
      "ones": 895,
      "##ions": 896,
      "doc": 897,
      "always": 898,
      "image": 899,
      "cons": 900,
      "plan": 901,
      "table": 902,
      "someone": 903,
      "head": 904,
      "confir": 905,
      "cuda": 906,
      "##ounds": 907,
      "hyperparameter": 908,
      "kinda": 909,
      "probab": 910,
      "hidden": 911,
      "related": 912,
      "small": 913,
      "temperat": 914,
      "issue": 915,
      "neurons": 916,
      "seems": 917,
      "idea": 918,
      "methods": 919,
      "scheduler": 920,
      "btw": 921,
      "visual": 922,
      "version": 923,
      "tomorrow": 924,
      "ah": 925,
      "bc": 926,
      "co": 927,
      "eas": 928,
      "even": 929,
      "full": 930,
      "here": 931,
      "lot": 932,
      "ran": 933,
      "sin": 934,
      "util": 935,
      "yet": 936,
      "##ek": 937,
      "##acc": 938,
      "##tle": 939,
      "##ian": 940,
      "##ial": 941,
      "##ating": 942,
      "##sting": 943,
      "##ans": 944,
      "##oup": 945,
      "##ity": 946,
      "ind": 947,
      "weight": 948,
      "week": 949,
      "trans": 950,
      "seg": 951,
      "state": 952,
      "okie": 953,
      "##ify": 954,
      "haven": 955,
      "exact": 956,
      "thinking": 957,
      "find": 958,
      "point": 959,
      "##and3": 960,
      "pred": 961,
      "intere": 962,
      "looking": 963,
      "suppo": 964,
      "higher": 965,
      "write": 966,
      "def": 967,
      "numbers": 968,
      "slow": 969,
      "those": 970,
      "custom1and3": 971,
      "group": 972,
      "name": 973,
      "progress": 974,
      "optimiz": 975,
      "request": 976,
      "okkk": 977,
      "command": 978,
      "spec": 979,
      "hours": 980,
      "else": 981,
      "probably": 982,
      "since": 983,
      "05": 984,
      "1e": 985,
      "20": 986,
      "200": 987,
      "3pm": 988,
      "aver": 989,
      "aug": 990,
      "cause": 991,
      "dou": 992,
      "desc": 993,
      "end": 994,
      "fun": 995,
      "gre": 996,
      "jo": 997,
      "lr": 998,
      "lst": 999,
      "oo": 1000,
      "old": 1001,
      "ple": 1002,
      "pull": 1003,
      "ssh": 1004,
      "sounds": 1005,
      "termin": 1006,
      "xian": 1007,
      "ying": 1008,
      "##ol": 1009,
      "##ove": 1010,
      "##ks": 1011,
      "##emb": 1012,
      "##uh": 1013,
      "##ail": 1014,
      "##mo": 1015,
      "##ward": 1016,
      "##68": 1017,
      "##ous": 1018,
      "##ens": 1019,
      "##enc": 1020,
      "anoth": 1021,
      "##arg": 1022,
      "once": 1023,
      "rest": 1024,
      "why": 1025,
      "chat": 1026,
      "chan": 1027,
      "##lder": 1028,
      "ohhh": 1029,
      "files": 1030,
      "repr": 1031,
      "master": 1032,
      "comp": 1033,
      "around": 1034,
      "post": 1035,
      "poss": 1036,
      "doesn": 1037,
      "changing": 1038,
      "started": 1039,
      "##oooooooo": 1040,
      "everyone": 1041,
      "idk": 1042,
      "quest": 1043,
      "lower": 1044,
      "expl": 1045,
      "##istic": 1046,
      "thought": 1047,
      "linear": 1048,
      "##ages": 1049,
      "folder": 1050,
      "stuff": 1051,
      "project": 1052,
      "faster": 1053,
      "temperature": 1054,
      "segmentation": 1055,
      "interesting": 1056,
      "optimizer": 1057,
      "double": 1058,
      "descri": 1059,
      "lstm": 1060,
      "please": 1061,
      "another": 1062,
      "00": 1063,
      "12": 1064,
      "768": 1065,
      "act": 1066,
      "bel": 1067,
      "bug": 1068,
      "dang": 1069,
      "eval": 1070,
      "fill": 1071,
      "gith": 1072,
      "give": 1073,
      "ig": 1074,
      "ill": 1075,
      "lay": 1076,
      "last": 1077,
      "mat": 1078,
      "mis": 1079,
      "song": 1080,
      "sorr": 1081,
      "sign": 1082,
      "targ": 1083,
      "won": 1084,
      "wan": 1085,
      "yay": 1086,
      "yuh": 1087,
      "##ep": 1088,
      "##em": 1089,
      "##ues": 1090,
      "##uction": 1091,
      "##com": 1092,
      "##cent": 1093,
      "##ies": 1094,
      "##ire": 1095,
      "##ild": 1096,
      "##iqu": 1097,
      "##ious": 1098,
      "##mat": 1099,
      "##24": 1100,
      "##form": 1101,
      "##stra": 1102,
      "inter": 1103,
      "##chn": 1104,
      "##ely": 1105,
      "##ason": 1106,
      "real": 1107,
      "reason": 1108,
      "off": 1109,
      "where": 1110,
      "sol": 1111,
      "worse": 1112,
      "##ross": 1113,
      "worked": 1114,
      "gets": 1115,
      "##ations": 1116,
      "##eee": 1117,
      "show": 1118,
      "until": 1119,
      "pa2": 1120,
      "comb": 1121,
      "trying": 1122,
      "abstra": 1123,
      "present": 1124,
      "guess": 1125,
      "helpful": 1126,
      "writ": 1127,
      "wrong": 1128,
      "techn": 1129,
      "option": 1130,
      "quite": 1131,
      "slight": 1132,
      "figure": 1133,
      "figures": 1134,
      "rememb": 1135,
      "download": 1136,
      "implemented": 1137,
      "finished": 1138,
      "reference": 1139,
      "currently": 1140,
      "build": 1141,
      "little": 1142,
      "confirm": 1143,
      "predi": 1144,
      "supposed": 1145,
      "augmentation": 1146,
      "activ": 1147,
      "github": 1148,
      "sorry": 1149,
      "target": 1150,
      "wanna": 1151,
      "abstract": 1152,
      "remember": 1153,
      "224": 1154,
      "av": 1155,
      "bre": 1156,
      "bun": 1157,
      "coo": 1158,
      "cross": 1159,
      "det": 1160,
      "ear": 1161,
      "fc": 1162,
      "had": 1163,
      "ke": 1164,
      "ker": 1165,
      "lab": 1166,
      "mb": 1167,
      "mid": 1168,
      "ow": 1169,
      "tm": 1170,
      "tas": 1171,
      "tys": 1172,
      "tense": 1173,
      "##ose": 1174,
      "##ved": 1175,
      "##ves": 1176,
      "##pon": 1177,
      "##aa": 1178,
      "##af": 1179,
      "##ace": 1180,
      "##ted": 1181,
      "##ten": 1182,
      "##ick": 1183,
      "##me": 1184,
      "##nt": 1185,
      "##nel": 1186,
      "##ory": 1187,
      "##etim": 1188,
      "incre": 1189,
      "forward": 1190,
      "format": 1191,
      "##ution": 1192,
      "true": 1193,
      "##leaf": 1194,
      "who": 1195,
      "step": 1196,
      "having": 1197,
      "upload": 1198,
      "ester2": 1199,
      "##thon": 1200,
      "ohh": 1201,
      "sometim": 1202,
      "images": 1203,
      "adam": 1204,
      "updating": 1205,
      "takes": 1206,
      "past": 1207,
      "##ption": 1208,
      "checking": 1209,
      "times": 1210,
      "##hhh": 1211,
      "##ilar": 1212,
      "##ility": 1213,
      "python": 1214,
      "similar": 1215,
      "highest": 1216,
      "overleaf": 1217,
      "while": 1218,
      "percent": 1219,
      "yupp": 1220,
      "install": 1221,
      "ready": 1222,
      "##arameters": 1223,
      "ent": 1224,
      "becom": 1225,
      "##ieve": 1226,
      "kind": 1227,
      "mentioned": 1228,
      "##ibility": 1229,
      "args": 1230,
      "improving": 1231,
      "##rupt": 1232,
      "consist": 1233,
      "smaller": 1234,
      "slower": 1235,
      "specific": 1236,
      "function": 1237,
      "great": 1238,
      "terminal": 1239,
      "question": 1240,
      "description": 1241,
      "believe": 1242,
      "matter": 1243,
      "techniqu": 1244,
      "slightly": 1245,
      "brea": 1246,
      "fcn": 1247,
      "kernel": 1248,
      "label": 1249,
      "own": 1250,
      "tmr": 1251,
      "tysm": 1252,
      "14": 1253,
      "70": 1254,
      "88": 1255,
      "86": 1256,
      "bl": 1257,
      "ca": 1258,
      "case": 1259,
      "emb": 1260,
      "lar": 1261,
      "mer": 1262,
      "mom": 1263,
      "mine": 1264,
      "mult": 1265,
      "mus": 1266,
      "np": 1267,
      "nan": 1268,
      "norm": 1269,
      "path": 1270,
      "row": 1271,
      "sw": 1272,
      "sent": 1273,
      "siz": 1274,
      "sense": 1275,
      "vo": 1276,
      "went": 1277,
      "were": 1278,
      "##oot": 1279,
      "##lier": 1280,
      "##ear": 1281,
      "##um": 1282,
      "##ubmit": 1283,
      "##pl": 1284,
      "##pect": 1285,
      "##torch": 1286,
      "##gg": 1287,
      "##geth": 1288,
      "##night": 1289,
      "##inal": 1290,
      "##eres": 1291,
      "##ates": 1292,
      "togeth": 1293,
      "##itting": 1294,
      "##itial": 1295,
      "isn": 1296,
      "##ute": 1297,
      "regr": 1298,
      "##iginal": 1299,
      "##iss": 1300,
      "loc": 1301,
      "secon": 1302,
      "char": 1303,
      "##ayay": 1304,
      "soft": 1305,
      "worri": 1306,
      "##amming": 1307,
      "subm": 1308,
      "##ateg": 1309,
      "list": 1310,
      "almo": 1311,
      "goes": 1312,
      "modif": 1313,
      "original": 1314,
      "resubmit": 1315,
      "##ized": 1316,
      "##blem": 1317,
      "exce": 1318,
      "problem": 1319,
      "taking": 1320,
      "pa3": 1321,
      "close": 1322,
      "based": 1323,
      "basic": 1324,
      "comes": 1325,
      "ask": 1326,
      "pushing": 1327,
      "left": 1328,
      "difference": 1329,
      "above": 1330,
      "couldn": 1331,
      "pytorch": 1332,
      "custom3": 1333,
      "few": 1334,
      "changed": 1335,
      "rnn": 1336,
      "quick": 1337,
      "means": 1338,
      "calling": 1339,
      "submitted": 1340,
      "strateg": 1341,
      "programming": 1342,
      "underst": 1343,
      "##ificant": 1344,
      "experimentation": 1345,
      "typo": 1346,
      "256": 1347,
      "easier": 1348,
      "weekend": 1349,
      "points": 1350,
      "join": 1351,
      "##ences": 1352,
      "represent": 1353,
      "possible": 1354,
      "layer": 1355,
      "significant": 1356,
      "interrupt": 1357,
      "prediction": 1358,
      "activation": 1359,
      "cool": 1360,
      "earlier": 1361,
      "sometimes": 1362,
      "adamw": 1363,
      "becomes": 1364,
      "large": 1365,
      "moment": 1366,
      "music": 1367,
      "sizes": 1368,
      "voc": 1369,
      "together": 1370,
      "regrade": 1371,
      "second": 1372,
      "worries": 1373,
      "submiss": 1374,
      "almost": 1375,
      "07": 1376,
      "01": 1377,
      "300": 1378,
      "5e": 1379,
      "5c": 1380,
      "60": 1381,
      "83": 1382,
      "99": 1383,
      "ass": 1384,
      "app": 1385,
      "ber": 1386,
      "big": 1387,
      "blo": 1388,
      "cr": 1389,
      "cor": 1390,
      "cle": 1391,
      "cal": 1392,
      "cop": 1393,
      "cpu": 1394,
      "cra": 1395,
      "corr": 1396,
      "date": 1397,
      "ep": 1398,
      "et": 1399,
      "em": 1400,
      "eith": 1401,
      "fast": 1402,
      "git": 1403,
      "hom": 1404,
      "hone": 1405,
      "js": 1406,
      "lim": 1407,
      "late": 1408,
      "less": 1409,
      "match": 1410,
      "nod": 1411,
      "none": 1412,
      "pre": 1413,
      "parameter": 1414,
      "red": 1415,
      "ret": 1416,
      "sc": 1417,
      "sg": 1418,
      "ser": 1419,
      "till": 1420,
      "txt": 1421,
      "way": 1422,
      "wif": 1423,
      "yoooooooo": 1424,
      "##rod": 1425,
      "##rain": 1426,
      "##sw": 1427,
      "##led": 1428,
      "##een": 1429,
      "##ection": 1430,
      "##pat": 1431,
      "##co": 1432,
      "##hing": 1433,
      "##ax": 1434,
      "##ault": 1435,
      "##tim": 1436,
      "##yy": 1437,
      "##iple": 1438,
      "##mory": 1439,
      "##got": 1440,
      "##ned": 1441,
      "##net": 1442,
      "##😳😳": 1443,
      "##fect": 1444,
      "##fitting": 1445,
      "##ween": 1446,
      "##boo": 1447,
      "##79": 1448,
      "##98": 1449,
      "##97": 1450,
      "##ording": 1451,
      "##stly": 1452,
      "##stive": 1453,
      "top": 1454,
      "##ount": 1455,
      "##espon": 1456,
      "answ": 1457,
      "item": 1458,
      "##eting": 1459,
      "incom": 1460,
      "initial": 1461,
      "##reed": 1462,
      "##rect": 1463,
      "##ary": 1464,
      "##ared": 1465,
      "forgot": 1466,
      "##utes": 1467,
      "##asing": 1468,
      "ref": 1469,
      "repo": 1470,
      "##ently": 1471,
      "##ahah": 1472,
      "thats": 1473,
      "choo": 1474,
      "stat": 1475,
      "stop": 1476,
      "oki": 1477,
      "##urn": 1478,
      "##ured": 1479,
      "sum": 1480,
      "##sterday": 1481,
      "note": 1482,
      "notation": 1483,
      "nothing": 1484,
      "##ular": 1485,
      "memory": 1486,
      "meeting": 1487,
      "yesterday": 1488,
      "resear": 1489,
      "she": 1490,
      "shoot": 1491,
      "according": 1492,
      "##used": 1493,
      "ext": 1494,
      "uses": 1495,
      "needed": 1496,
      "pa4": 1497,
      "page": 1498,
      "##ments": 1499,
      "finally": 1500,
      "making": 1501,
      "makes": 1502,
      "adding": 1503,
      "comput": 1504,
      "checked": 1505,
      "abc": 1506,
      "##aph": 1507,
      "value": 1508,
      "##aced": 1509,
      "introd": 1510,
      "heh": 1511,
      "feat": 1512,
      "overnight": 1513,
      "overfitting": 1514,
      "between": 1515,
      "##ropy": 1516,
      "##ivid": 1517,
      "##aramter": 1518,
      "cuz": 1519,
      "minor": 1520,
      "##rastive": 1521,
      "dec": 1522,
      "decre": 1523,
      "agreed": 1524,
      "amaz": 1525,
      "lowest": 1526,
      "expect": 1527,
      "enough": 1528,
      "151": 1529,
      "##rib": 1530,
      "hyperparameters": 1531,
      "hyperparamter": 1532,
      "curious": 1533,
      "graph": 1534,
      "remo": 1535,
      "papers": 1536,
      "stride": 1537,
      "contrastive": 1538,
      "configs": 1539,
      "##aging": 1540,
      "niceeeee": 1541,
      "1000": 1542,
      "oops": 1543,
      "##ibly": 1544,
      "stuck": 1545,
      "experiments": 1546,
      "argu": 1547,
      "##erministic": 1548,
      "tyty": 1549,
      "improve": 1550,
      "rerunning": 1551,
      "250": 1552,
      "create": 1553,
      "created": 1554,
      "given": 1555,
      "gives": 1556,
      "visualize": 1557,
      "fully": 1558,
      "individ": 1559,
      "transfer": 1560,
      "default": 1561,
      "commands": 1562,
      "averaging": 1563,
      "##ailable": 1564,
      "chance": 1565,
      "change": 1566,
      "128": 1567,
      "combin": 1568,
      "writing": 1569,
      "available": 1570,
      "bunch": 1571,
      "deterministic": 1572,
      "key": 1573,
      "task": 1574,
      "increase": 1575,
      "formatting": 1576,
      "uploaded": 1577,
      "technique": 1578,
      "embed": 1579,
      "merge": 1580,
      "sentence": 1581,
      "charact": 1582,
      "strategies": 1583,
      "submission": 1584,
      "bert": 1585,
      "correct": 1586,
      "correspon": 1587,
      "etc": 1588,
      "either": 1589,
      "home": 1590,
      "honestly": 1591,
      "limit": 1592,
      "latest": 1593,
      "return": 1594,
      "sgd": 1595,
      "wifi": 1596,
      "##time": 1597,
      "incompat": 1598,
      "choose": 1599,
      "research": 1600,
      "introduction": 1601,
      "11": 1602,
      "26": 1603,
      "4b": 1604,
      "49": 1605,
      "80": 1606,
      "ac": 1607,
      "aw": 1608,
      "aim": 1609,
      "ahh": 1610,
      "ce": 1611,
      "cit": 1612,
      "cut": 1613,
      "cse": 1614,
      "ds": 1615,
      "day": 1616,
      "div": 1617,
      "dra": 1618,
      "element": 1619,
      "eff": 1620,
      "emo": 1621,
      "fl": 1622,
      "fle": 1623,
      "goo": 1624,
      "gpt": 1625,
      "his": 1626,
      "heres": 1627,
      "jk": 1628,
      "k8": 1629,
      "mor": 1630,
      "ob": 1631,
      "occ": 1632,
      "pe": 1633,
      "pop": 1634,
      "pass": 1635,
      "pers": 1636,
      "param": 1637,
      "q2": 1638,
      "rough": 1639,
      "rath": 1640,
      "sy": 1641,
      "sing": 1642,
      "sort": 1643,
      "scre": 1644,
      "uhh": 1645,
      "##old": 1646,
      "##ring": 1647,
      "##rary": 1648,
      "##lp": 1649,
      "##line": 1650,
      "##vis": 1651,
      "##vol": 1652,
      "##ex": 1653,
      "##uc": 1654,
      "##ud": 1655,
      "##uld": 1656,
      "##uation": 1657,
      "##pe": 1658,
      "##cod": 1659,
      "##cess": 1660,
      "##are": 1661,
      "##ave": 1662,
      "##train": 1663,
      "##ih": 1664,
      "##ially": 1665,
      "##ds": 1666,
      "##dd": 1667,
      "##mend": 1668,
      "##max": 1669,
      "##mlp": 1670,
      "##43": 1671,
      "##gn": 1672,
      "##ging": 1673,
      "##nore": 1674,
      "##ness": 1675,
      "##xel": 1676,
      "##56": 1677,
      "##ww": 1678,
      "##wor": 1679,
      "##brary": 1680,
      "##77": 1681,
      "##just": 1682,
      "##erally": 1683,
      "took": 1684,
      "##ensh": 1685,
      "##esh": 1686,
      "##itch": 1687,
      "##ote": 1688,
      "##utions": 1689,
      "##aset": 1690,
      "recom": 1691,
      "##cting": 1692,
      "being": 1693,
      "##unk": 1694,
      "seq": 1695,
      "seen": 1696,
      "seeeee": 1697,
      "##imal": 1698,
      "whate": 1699,
      "chart": 1700,
      "chunk": 1701,
      "##ider": 1702,
      "##ame": 1703,
      "##illed": 1704,
      "without": 1705,
      "##ader": 1706,
      "##ading": 1707,
      "super": 1708,
      "notes": 1709,
      "happ": 1710,
      "trained": 1711,
      "runs": 1712,
      "runtime": 1713,
      "library": 1714,
      "##point": 1715,
      "meant": 1716,
      "myster": 1717,
      "yep": 1718,
      "##term": 1719,
      "order": 1720,
      "img": 1721,
      "resnet": 1722,
      "conver": 1723,
      "conda": 1724,
      "convol": 1725,
      "##perly": 1726,
      "coding": 1727,
      "anyw": 1728,
      "repl": 1729,
      "play": 1730,
      "##ference": 1731,
      "shuld": 1732,
      "adjust": 1733,
      "properly": 1734,
      "needs": 1735,
      "seeing": 1736,
      "someh": 1737,
      "clr": 1738,
      "clon": 1739,
      "finding": 1740,
      "##ici": 1741,
      "##ope": 1742,
      "##ople": 1743,
      "checkpoint": 1744,
      "diff": 1745,
      "testing": 1746,
      "tested": 1747,
      "testacc": 1748,
      "aren": 1749,
      "least": 1750,
      "values": 1751,
      "dataset": 1752,
      "gotten": 1753,
      "confused": 1754,
      "accurate": 1755,
      "move": 1756,
      "moving": 1757,
      "moved": 1758,
      "starting": 1759,
      "bestval": 1760,
      "besttrain": 1761,
      "wrote": 1762,
      "text": 1763,
      "options": 1764,
      "saw": 1765,
      "save": 1766,
      "minutes": 1767,
      "newest": 1768,
      "errors": 1769,
      "perform": 1770,
      "space": 1771,
      "instru": 1772,
      "mostly": 1773,
      "amount": 1774,
      "##ugging": 1775,
      "export": 1776,
      "env": 1777,
      "encod": 1778,
      "pixel": 1779,
      "##enger": 1780,
      "150": 1781,
      "called": 1782,
      "backend": 1783,
      "figured": 1784,
      "grad": 1785,
      "remove": 1786,
      "named": 1787,
      "names": 1788,
      "urs": 1789,
      "finalize": 1790,
      "things": 1791,
      "string": 1792,
      "content": 1793,
      "contrib": 1794,
      "implementation": 1795,
      "30pm": 1796,
      "optima": 1797,
      "references": 1798,
      "hmmm": 1799,
      "hmmmm": 1800,
      "outputs": 1801,
      "speed": 1802,
      "message": 1803,
      "messenger": 1804,
      "oooh": 1805,
      "projection": 1806,
      "literally": 1807,
      "confirming": 1808,
      "transl": 1809,
      "exactly": 1810,
      "specify": 1811,
      "0556": 1812,
      "average": 1813,
      "job": 1814,
      "##ensive": 1815,
      "##ency": 1816,
      "restart": 1817,
      "compared": 1818,
      "possibly": 1819,
      "explain": 1820,
      "explore": 1821,
      "stuffs": 1822,
      "001": 1823,
      "evaluation": 1824,
      "ignore": 1825,
      "missed": 1826,
      "yayyy": 1827,
      "combine": 1828,
      "written": 1829,
      "confirmed": 1830,
      "midi": 1831,
      "midterm": 1832,
      "whole": 1833,
      "percentage": 1834,
      "entire": 1835,
      "entropy": 1836,
      "consistently": 1837,
      "matters": 1838,
      "break": 1839,
      "140": 1840,
      "multiple": 1841,
      "normal": 1842,
      "switch": 1843,
      "locally": 1844,
      "softmax": 1845,
      "modified": 1846,
      "except": 1847,
      "asked": 1848,
      "understand": 1849,
      "representation": 1850,
      "predictions": 1851,
      "assign": 1852,
      "clear": 1853,
      "copy": 1854,
      "json": 1855,
      "node": 1856,
      "reduction": 1857,
      "server": 1858,
      "##book": 1859,
      "answer": 1860,
      "refle": 1861,
      "extra": 1862,
      "computer": 1863,
      "hehe": 1864,
      "features": 1865,
      "151b": 1866,
      "argument": 1867,
      "individual": 1868,
      "characters": 1869,
      "incompatibility": 1870,
      "cell": 1871,
      "dsmlp": 1872,
      "divide": 1873,
      "emoj": 1874,
      "flex": 1875,
      "k8s": 1876,
      "morning": 1877,
      "people": 1878,
      "popular": 1879,
      "person": 1880,
      "params": 1881,
      "roughly": 1882,
      "rather": 1883,
      "single": 1884,
      "screensh": 1885,
      "##work": 1886,
      "recommend": 1887,
      "whatever": 1888,
      "convolution": 1889,
      "bestvalacc": 1890,
      "besttrainacc": 1891,
      "instruction": 1892,
      "encoder": 1893,
      "contributions": 1894,
      "screenshot": 1895,
      "02": 1896,
      "000": 1897,
      "17": 1898,
      "19": 1899,
      "24": 1900,
      "21": 1901,
      "377": 1902,
      "4a": 1903,
      "48": 1904,
      "51": 1905,
      "5pm": 1906,
      "67": 1907,
      "6pm": 1908,
      "75": 1909,
      "71": 1910,
      "73": 1911,
      "82": 1912,
      "92": 1913,
      "98": 1914,
      "aut": 1915,
      "aight": 1916,
      "bad": 1917,
      "bro": 1918,
      "bib": 1919,
      "bold": 1920,
      "catch": 1921,
      "dup": 1922,
      "ed": 1923,
      "fs": 1924,
      "fal": 1925,
      "fur": 1926,
      "found": 1927,
      "faced": 1928,
      "hr": 1929,
      "hard": 1930,
      "ip": 1931,
      "ive": 1932,
      "jok": 1933,
      "killed": 1934,
      "ld": 1935,
      "l2": 1936,
      "link": 1937,
      "mon": 1938,
      "nv": 1939,
      "non": 1940,
      "net": 1941,
      "night": 1942,
      "op": 1943,
      "odd": 1944,
      "pd": 1945,
      "pin": 1946,
      "pain": 1947,
      "pay": 1948,
      "pth": 1949,
      "port": 1950,
      "parameters": 1951,
      "ppl": 1952,
      "q4": 1953,
      "rll": 1954,
      "rid": 1955,
      "rly": 1956,
      "round": 1957,
      "rounds": 1958,
      "sk": 1959,
      "sat": 1960,
      "sun": 1961,
      "sess": 1962,
      "sour": 1963,
      "says": 1964,
      "tut": 1965,
      "term": 1966,
      "umm": 1967,
      "wd": 1968,
      "wed": 1969,
      "ya": 1970,
      "yall": 1971,
      "zo": 1972,
      "😮😮": 1973,
      "##oon": 1974,
      "##ood": 1975,
      "##ofre": 1976,
      "##red": 1977,
      "##rit": 1978,
      "##rnn": 1979,
      "##know": 1980,
      "##sel": 1981,
      "##sine": 1982,
      "##site": 1983,
      "##spect": 1984,
      "##sih": 1985,
      "##li": 1986,
      "##lic": 1987,
      "##vide": 1988,
      "##eed": 1989,
      "##eal": 1990,
      "##ever": 1991,
      "##ext": 1992,
      "##ually": 1993,
      "##uming": 1994,
      "##ped": 1995,
      "##page": 1996,
      "##cj": 1997,
      "##ced": 1998,
      "##ces": 1999,
      "##cur": 2000,
      "##cul": 2001,
      "##cus": 2002,
      "##here": 2003,
      "##ta": 2004,
      "##tal": 2005,
      "##ym": 2006,
      "##yn": 2007,
      "##yayay": 2008,
      "##ip": 2009,
      "##ior": 2010,
      "##iest": 2011,
      "##dled": 2012,
      "##mod": 2013,
      "##20": 2014,
      "##47": 2015,
      "##ger": 2016,
      "##ged": 2017,
      "##gle": 2018,
      "##gic": 2019,
      "##nes": 2020,
      "##noon": 2021,
      "##neal": 2022,
      "##500": 2023,
      "##fy": 2024,
      "##wing": 2025,
      "##bal": 2026,
      "##99": 2027,
      "##91": 2028,
      "##10": 2029,
      "##19": 2030,
      "##zy": 2031,
      "##36": 2032,
      "three": 2033,
      "theres": 2034,
      "##ines": 2035,
      "##inom": 2036,
      "##inder": 2037,
      "##error": 2038,
      "##ative": 2039,
      "##stant": 2040,
      "##ank": 2041,
      "##aning": 2042,
      "##ance": 2043,
      "##anced": 2044,
      "total": 2045,
      "##oud": 2046,
      "anal": 2047,
      "anneal": 2048,
      "##llo": 2049,
      "##its": 2050,
      "##ited": 2051,
      "ing": 2052,
      "incl": 2053,
      "ish": 2054,
      "##arize": 2055,
      "##arant": 2056,
      "##arify": 2057,
      "force": 2058,
      "forum": 2059,
      "##owing": 2060,
      "rever": 2061,
      "weir": 2062,
      "##entation": 2063,
      "##entially": 2064,
      "track": 2065,
      "trading": 2066,
      "##unch": 2067,
      "log": 2068,
      "seeee": 2069,
      "sto": 2070,
      "stor": 2071,
      "stand": 2072,
      "stack": 2073,
      "soon": 2074,
      "##iday": 2075,
      "worth": 2076,
      "sub": 2077,
      "suck": 2078,
      "summ": 2079,
      "suff": 2080,
      "sugg": 2081,
      "suspect": 2082,
      "##cebook": 2083,
      "##ooo": 2084,
      "never": 2085,
      "next": 2086,
      "##posite": 2087,
      "modify": 2088,
      "##ested": 2089,
      "respon": 2090,
      "respect": 2091,
      "constant": 2092,
      "five": 2093,
      "anyways": 2094,
      "##ization": 2095,
      "plugging": 2096,
      "hahh": 2097,
      "share": 2098,
      "access": 2099,
      "exam": 2100,
      "exist": 2101,
      "prof": 2102,
      "process": 2103,
      "proofre": 2104,
      "provide": 2105,
      "uns": 2106,
      "unknow": 2107,
      "brute": 2108,
      "pa1": 2109,
      "pair": 2110,
      "##mented": 2111,
      "lolol": 2112,
      "losses": 2113,
      "reporting": 2114,
      "clarify": 2115,
      "finsih": 2116,
      "map": 2117,
      "max": 2118,
      "magic": 2119,
      "sample": 2120,
      "##ically": 2121,
      "basline": 2122,
      "comment": 2123,
      "composite": 2124,
      "timed": 2125,
      "art": 2126,
      "##hhhhh": 2127,
      "##ilt": 2128,
      "friday": 2129,
      "prom": 2130,
      "print": 2131,
      "prior": 2132,
      "gotta": 2133,
      "##acing": 2134,
      "timeout": 2135,
      "intro": 2136,
      "intention": 2137,
      "sections": 2138,
      "wasn": 2139,
      "shouldn": 2140,
      "hello": 2141,
      "simult": 2142,
      "confli": 2143,
      "fixing": 2144,
      "fixes": 2145,
      "affect": 2146,
      "starter": 2147,
      "##upy": 2148,
      "##endar": 2149,
      "##endent": 2150,
      "guarant": 2151,
      "helped": 2152,
      "setting": 2153,
      "settle": 2154,
      "afternoon": 2155,
      "##ysis": 2156,
      "team": 2157,
      "learned": 2158,
      "waiting": 2159,
      "saves": 2160,
      "mins": 2161,
      "minute": 2162,
      "tuned": 2163,
      "deb": 2164,
      "knows": 2165,
      "manual": 2166,
      "mainly": 2167,
      "ago": 2168,
      "perfect": 2169,
      "spam": 2170,
      "yuppp": 2171,
      "##iron": 2172,
      "##ires": 2173,
      "reading": 2174,
      "readme": 2175,
      "expensive": 2176,
      "supconmod": 2177,
      "general": 2178,
      "generation": 2179,
      "generated": 2180,
      "dont": 2181,
      "pick": 2182,
      "wants": 2183,
      "wanted": 2184,
      "reminder": 2185,
      "1679": 2186,
      "keeping": 2187,
      "context": 2188,
      "randomly": 2189,
      "randomness": 2190,
      "focus": 2191,
      "putting": 2192,
      "smth": 2193,
      "twice": 2194,
      "referring": 2195,
      "require": 2196,
      "requires": 2197,
      "templ": 2198,
      "issues": 2199,
      "common": 2200,
      "argue": 2201,
      "ideas": 2202,
      "062": 2203,
      "oooo": 2204,
      "ooohh": 2205,
      "894": 2206,
      "895": 2207,
      "built": 2208,
      "facebook": 2209,
      "giving": 2210,
      "saying": 2211,
      "torchvis": 2212,
      "##escope": 2213,
      "consider": 2214,
      "planning": 2215,
      "temperatures": 2216,
      "coll": 2217,
      "cover": 2218,
      "cosine": 2219,
      "easy": 2220,
      "easiest": 2221,
      "range": 2222,
      "indentation": 2223,
      "weights": 2224,
      "transform": 2225,
      "statement": 2226,
      "suppose": 2227,
      "defin": 2228,
      "ended": 2229,
      "greater": 2230,
      "ooh": 2231,
      "##ols": 2232,
      "##ails": 2233,
      "questions": 2234,
      "describe": 2235,
      "008": 2236,
      "bugs": 2237,
      "layers": 2238,
      "songrnn": 2239,
      "signs": 2240,
      "wonder": 2241,
      "realized": 2242,
      "reasonable": 2243,
      "solve": 2244,
      "solved": 2245,
      "solution": 2246,
      "shows": 2247,
      "building": 2248,
      "predicting": 2249,
      "bundled": 2250,
      "details": 2251,
      "kept": 2252,
      "##aaah": 2253,
      "##mean": 2254,
      "increasing": 2255,
      "consistency": 2256,
      "specifically": 2257,
      "functional": 2258,
      "techniques": 2259,
      "breaks": 2260,
      "labels": 2261,
      "blah": 2262,
      "care": 2263,
      "capt": 2264,
      "multinom": 2265,
      "nanmean": 2266,
      "local": 2267,
      "modifed": 2268,
      "exceed": 2269,
      "understood": 2270,
      "representations": 2271,
      "interrupting": 2272,
      "interrupted": 2273,
      "9997": 2274,
      "apply": 2275,
      "bigger": 2276,
      "block": 2277,
      "calcul": 2278,
      "calendar": 2279,
      "crazy": 2280,
      "email": 2281,
      "preference": 2282,
      "yoooooooooooooooo": 2283,
      "yooooooooooo": 2284,
      "##cogn": 2285,
      "item1": 2286,
      "initialize": 2287,
      "stats": 2288,
      "statistic": 2289,
      "okiee": 2290,
      "sheesh": 2291,
      "accordingly": 2292,
      "decay": 2293,
      "decimal": 2294,
      "decreasing": 2295,
      "amazon": 2296,
      "amazing": 2297,
      "expected": 2298,
      "removing": 2299,
      "combined": 2300,
      "correspond": 2301,
      "corresponding": 2302,
      "260": 2303,
      "cutting": 2304,
      "google": 2305,
      "obs": 2306,
      "##ude": 2307,
      "happen": 2308,
      "runtimeerror": 2309,
      "mysterious": 2310,
      "imgs": 2311,
      "converter": 2312,
      "anyway": 2313,
      "replace": 2314,
      "somehow": 2315,
      "##icient": 2316,
      "environ": 2317,
      "backends": 2318,
      "gradescope": 2319,
      "translation": 2320,
      "restarting": 2321,
      "understanding": 2322,
      "assignment": 2323,
      "reflect": 2324,
      "emoji": 2325,
      "flexibility": 2326,
      "screenshots": 2327,
      "broke": 2328,
      "duplic": 2329,
      "edited": 2330,
      "false": 2331,
      "hrs": 2332,
      "ipyn": 2333,
      "joking": 2334,
      "nvm": 2335,
      "network": 2336,
      "open": 2337,
      "pdf": 2338,
      "pinned": 2339,
      "painful": 2340,
      "rlly": 2341,
      "sunday": 2342,
      "session": 2343,
      "source": 2344,
      "tutor": 2345,
      "terms": 2346,
      "wdym": 2347,
      "wednes": 2348,
      "zoom": 2349,
      "##current": 2350,
      "##balanced": 2351,
      "analysis": 2352,
      "annealing": 2353,
      "weird": 2354,
      "summarize": 2355,
      "sufficient": 2356,
      "suggested": 2357,
      "existing": 2358,
      "proofread": 2359,
      "unknown": 2360,
      "finsihed": 2361,
      "intentional": 2362,
      "conflict": 2363,
      "supconmodel": 2364,
      "template": 2365,
      "torchvision": 2366,
      "multinomial": 2367,
      "duplicate": 2368,
      "ipynb": 2369,
      "wednesday": 2370,
      "08": 2371,
      "099": 2372,
      "18": 2373,
      "198": 2374,
      "28": 2375,
      "27": 2376,
      "23": 2377,
      "2nd": 2378,
      "2pm": 2379,
      "298": 2380,
      "3i": 2381,
      "39": 2382,
      "31": 2383,
      "42": 2384,
      "4x": 2385,
      "40": 2386,
      "45": 2387,
      "47": 2388,
      "5h": 2389,
      "58": 2390,
      "5am": 2391,
      "520": 2392,
      "65": 2393,
      "6b": 2394,
      "69": 2395,
      "61": 2396,
      "7e": 2397,
      "72": 2398,
      "74": 2399,
      "78": 2400,
      "79": 2401,
      "7pm": 2402,
      "84": 2403,
      "85": 2404,
      "800": 2405,
      "8pm": 2406,
      "95": 2407,
      "97": 2408,
      "93": 2409,
      "9am": 2410,
      "aaa": 2411,
      "a500": 2412,
      "ben": 2413,
      "bot": 2414,
      "bod": 2415,
      "bound": 2416,
      "billed": 2417,
      "car": 2418,
      "cul": 2419,
      "cite": 2420,
      "crop": 2421,
      "coooo": 2422,
      "cir": 2423,
      "cach": 2424,
      "cute": 2425,
      "count": 2426,
      "came": 2427,
      "dr": 2428,
      "dom": 2429,
      "due": 2430,
      "dumb": 2431,
      "dist": 2432,
      "dri": 2433,
      "deep": 2434,
      "days": 2435,
      "dire": 2436,
      "es": 2437,
      "eh": 2438,
      "ey": 2439,
      "ess": 2440,
      "ease": 2441,
      "fj": 2442,
      "fit": 2443,
      "fre": 2444,
      "fut": 2445,
      "fel": 2446,
      "fas": 2447,
      "fly": 2448,
      "fee": 2449,
      "fact": 2450,
      "gl": 2451,
      "gp": 2452,
      "gc": 2453,
      "gb": 2454,
      "gim": 2455,
      "gone": 2456,
      "gra": 2457,
      "gates": 2458,
      "gave": 2459,
      "hs": 2460,
      "hv": 2461,
      "hu": 2462,
      "hi": 2463,
      "hal": 2464,
      "hall": 2465,
      "hand": 2466,
      "hub": 2467,
      "hum": 2468,
      "hold": 2469,
      "ir": 2470,
      "ie": 2471,
      "jst": 2472,
      "jch": 2473,
      "jupy": 2474,
      "kid": 2475,
      "la": 2476,
      "ly": 2477,
      "len": 2478,
      "les": 2479,
      "lel": 2480,
      "lun": 2481,
      "lang": 2482,
      "lau": 2483,
      "larg": 2484,
      "lines": 2485,
      "loud": 2486,
      "mk": 2487,
      "mt": 2488,
      "met": 2489,
      "must": 2490,
      "mone": 2491,
      "mass": 2492,
      "mist": 2493,
      "na": 2494,
      "nt": 2495,
      "nd": 2496,
      "noo": 2497,
      "nope": 2498,
      "os": 2499,
      "ouch": 2500,
      "ps": 2501,
      "ph": 2502,
      "par": 2503,
      "pot": 2504,
      "pig": 2505,
      "pur": 2506,
      "pad": 2507,
      "pend": 2508,
      "pub": 2509,
      "pure": 2510,
      "psh": 2511,
      "q5": 2512,
      "q3": 2513,
      "que": 2514,
      "q10": 2515,
      "ro": 2516,
      "rot": 2517,
      "rent": 2518,
      "ris": 2519,
      "rap": 2520,
      "root": 2521,
      "rates": 2522,
      "rip": 2523,
      "san": 2524,
      "sel": 2525,
      "sct": 2526,
      "sad": 2527,
      "squ": 2528,
      "site": 2529,
      "scu": 2530,
      "sir": 2531,
      "side": 2532,
      "sens": 2533,
      "sitting": 2534,
      "tb": 2535,
      "tin": 2536,
      "tal": 2537,
      "tall": 2538,
      "tight": 2539,
      "til": 2540,
      "tens": 2541,
      "tues": 2542,
      "vv": 2543,
      "vie": 2544,
      "vag": 2545,
      "wo": 2546,
      "wer": 2547,
      "wok": 2548,
      "weng": 2549,
      "wih": 2550,
      "wider": 2551,
      "xa": 2552,
      "xd": 2553,
      "xx": 2554,
      "x0": 2555,
      "x1": 2556,
      "yi": 2557,
      "yas": 2558,
      "yoo": 2559,
      "yoooo": 2560,
      "yaaah": 2561,
      "zer": 2562,
      "zip": 2563,
      "👌👌": 2564,
      "😍😍": 2565,
      "😬😬": 2566,
      "😭🙌": 2567,
      "😮💨": 2568,
      "😳😳": 2569,
      "😳😳😳": 2570,
      "🙌🏼": 2571,
      "🤔🤓": 2572,
      "🤣🎉": 2573,
      "🫠🫠": 2574,
      "##oid": 2575,
      "##oic": 2576,
      "##ooth": 2577,
      "##off": 2578,
      "##oard": 2579,
      "##oader": 2580,
      "##ry": 2581,
      "##right": 2582,
      "##ric": 2583,
      "##ratch": 2584,
      "##ress": 2585,
      "##rite": 2586,
      "##ried": 2587,
      "##rase": 2588,
      "##ky": 2589,
      "##kie": 2590,
      "##kward": 2591,
      "##kens": 2592,
      "##kely": 2593,
      "##sing": 2594,
      "##sight": 2595,
      "##sure": 2596,
      "##side": 2597,
      "##sibility": 2598,
      "##ling": 2599,
      "##let": 2600,
      "##loo": 2601,
      "##lated": 2602,
      "##lab": 2603,
      "##lish": 2604,
      "##lian": 2605,
      "##lks": 2606,
      "##vs": 2607,
      "##vation": 2608,
      "##vier": 2609,
      "##vant": 2610,
      "##vice": 2611,
      "##vious": 2612,
      "##ean": 2613,
      "##epo": 2614,
      "##eated": 2615,
      "##eung": 2616,
      "##eous": 2617,
      "##eces": 2618,
      "##evs": 2619,
      "##uu": 2620,
      "##uke": 2621,
      "##uper": 2622,
      "##uage": 2623,
      "##ping": 2624,
      "##par": 2625,
      "##part": 2626,
      "##pass": 2627,
      "##ples": 2628,
      "##prit": 2629,
      "##pendent": 2630,
      "##ci": 2631,
      "##cing": 2632,
      "##cen": 2633,
      "##cid": 2634,
      "##cse": 2635,
      "##cially": 2636,
      "##cred": 2637,
      "##her": 2638,
      "##has": 2639,
      "##hent": 2640,
      "##hah": 2641,
      "##hse": 2642,
      "##hap": 2643,
      "##hting": 2644,
      "##hub": 2645,
      "##have": 2646,
      "##hensive": 2647,
      "##hance": 2648,
      "##aah": 2649,
      "##ake": 2650,
      "##aper": 2651,
      "##aus": 2652,
      "##aks": 2653,
      "##aky": 2654,
      "##te": 2655,
      "##tes": 2656,
      "##tom": 2657,
      "##tign": 2658,
      "##tem": 2659,
      "##tex": 2660,
      "##ye": 2661,
      "##yon": 2662,
      "##ych": 2663,
      "##yped": 2664,
      "##ix": 2665,
      "##iet": 2666,
      "##ile": 2667,
      "##ily": 2668,
      "##ience": 2669,
      "##iable": 2670,
      "##ipp": 2671,
      "##iently": 2672,
      "##mp": 2673,
      "##ma": 2674,
      "##min": 2675,
      "##mar": 2676,
      "##mul": 2677,
      "##more": 2678,
      "##mand": 2679,
      "##mem": 2680,
      "##mits": 2681,
      "##22": 2682,
      "##298": 2683,
      "##291": 2684,
      "##400": 2685,
      "##479": 2686,
      "##443": 2687,
      "##ga": 2688,
      "##gy": 2689,
      "##gan": 2690,
      "##ges": 2691,
      "##gence": 2692,
      "##goooo": 2693,
      "##gles": 2694,
      "##gible": 2695,
      "##gured": 2696,
      "##nc": 2697,
      "##ny": 2698,
      "##nj": 2699,
      "##nting": 2700,
      "##nage": 2701,
      "##nection": 2702,
      "##x3": 2703,
      "##xity": 2704,
      "##x10": 2705,
      "##81": 2706,
      "##86": 2707,
      "##07": 2708,
      "##01": 2709,
      "##06": 2710,
      "##51": 2711,
      "##577": 2712,
      "##520": 2713,
      "##fo": 2714,
      "##fe": 2715,
      "##full": 2716,
      "##fast": 2717,
      "##fact": 2718,
      "##fix": 2719,
      "##writ": 2720,
      "##where": 2721,
      "##write": 2722,
      "##wling": 2723,
      "##bs": 2724,
      "##back": 2725,
      "##board": 2726,
      "##71": 2727,
      "##747": 2728,
      "##94": 2729,
      "##96": 2730,
      "##14": 2731,
      "##62": 2732,
      "##61": 2733,
      "##679": 2734,
      "##39": 2735,
      "##31": 2736,
      "##ja": 2737,
      "##ject": 2738,
      "thaks": 2739,
      "##inant": 2740,
      "##inues": 2741,
      "##inates": 2742,
      "##initial": 2743,
      "##incid": 2744,
      "##erion": 2745,
      "##erate": 2746,
      "##erable": 2747,
      "##ervation": 2748,
      "their": 2749,
      "##ator": 2750,
      "##ativ": 2751,
      "##atial": 2752,
      "##atform": 2753,
      "##atically": 2754,
      "##orator": 2755,
      "##ingful": 2756,
      "##sted": 2757,
      "##stem": 2758,
      "##anation": 2759,
      "##ange": 2760,
      "##anks": 2761,
      "##aneous": 2762,
      "tokens": 2763,
      "##edits": 2764,
      "##edback": 2765,
      "##esnting": 2766,
      "angles": 2767,
      "##llled": 2768,
      "##llowing": 2769,
      "iter": 2770,
      "##etch": 2771,
      "##etun": 2772,
      "##ition": 2773,
      "##itly": 2774,
      "##itive": 2775,
      "##itable": 2776,
      "##ities": 2777,
      "##itely": 2778,
      "##itance": 2779,
      "##itude": 2780,
      "##iterion": 2781,
      "inval": 2782,
      "inform": 2783,
      "inference": 2784,
      "insight": 2785,
      "incred": 2786,
      "inher": 2787,
      "info": 2788,
      "##chs": 2789,
      "##chat": 2790,
      "##chast": 2791,
      "##chines": 2792,
      "##chmar": 2793,
      "##rele": 2794,
      "##recogn": 2795,
      "##reci": 2796,
      "##rehensive": 2797,
      "##remem": 2798,
      "##aris": 2799,
      "##arily": 2800,
      "##otely": 2801,
      "forcing": 2802,
      "##omatically": 2803,
      "##utre": 2804,
      "##elf": 2805,
      "##eless": 2806,
      "##elds": 2807,
      "##oduc": 2808,
      "##ases": 2809,
      "##asible": 2810,
      "##owed": 2811,
      "reach": 2812,
      "react": 2813,
      "recent": 2814,
      "recogn": 2815,
      "recurrent": 2816,
      "rewrite": 2817,
      "reinitial": 2818,
      "youuu": 2819,
      "##entif": 2820,
      "##entally": 2821,
      "##entropy": 2822,
      "##ctly": 2823,
      "##ctures": 2824,
      "trau": 2825,
      "trade": 2826,
      "triple": 2827,
      "behave": 2828,
      "beyon": 2829,
      "ofc": 2830,
      "offer": 2831,
      "of97": 2832,
      "##ise": 2833,
      "##ising": 2834,
      "##isation": 2835,
      "##iseeee": 2836,
      "##isfact": 2837,
      "##ahhah": 2838,
      "love": 2839,
      "lose": 2840,
      "loader": 2841,
      "loading": 2842,
      "sec": 2843,
      "sell": 2844,
      "seee": 2845,
      "seperat": 2846,
      "sepe": 2847,
      "separ": 2848,
      "##aloader": 2849,
      "##ains": 2850,
      "##ainly": 2851,
      "##ima": 2852,
      "dokie": 2853,
      "chose": 2854,
      "choic": 2855,
      "chnage": 2856,
      "std": 2857,
      "stay": 2858,
      "stup": 2859,
      "stick": 2860,
      "states": 2861,
      "stdd": 2862,
      "##ayy": 2863,
      "##ayyayay": 2864,
      "cant": 2865,
      "soo": 2866,
      "soz": 2867,
      "##ides": 2868,
      "##idly": 2869,
      "##identally": 2870,
      "##section": 2871,
      "##urs": 2872,
      "##urb": 2873,
      "##urday": 2874,
      "wording": 2875,
      "words": 2876,
      "worry": 2877,
      "justify": 2878,
      "iffy": 2879,
      "within": 2880,
      "succ": 2881,
      "sucj": 2882,
      "suitable": 2883,
      "##rol": 2884,
      "##sss": 2885,
      "##ssss": 2886,
      "##arte": 2887,
      "workign": 2888,
      "##cept": 2889,
      "##ool": 2890,
      "neeeee": 2891,
      "necess": 2892,
      "##ateaus": 2893,
      "haja": 2894,
      "trains": 2895,
      "trainer": 2896,
      "trainloo": 2897,
      "upper": 2898,
      "likely": 2899,
      "lilian": 2900,
      "##pose": 2901,
      "##polated": 2902,
      "alth": 2903,
      "along": 2904,
      "alright": 2905,
      "esters": 2906,
      "gosh": 2907,
      "meme": 2908,
      "mega": 2909,
      "##cked": 2910,
      "gettign": 2911,
      "##vered": 2912,
      "modific": 2913,
      "##ationally": 2914,
      "mysel": 2915,
      "year": 2916,
      "yeye": 2917,
      "##terion": 2918,
      "##terhub": 2919,
      "organ": 2920,
      "imbalanced": 2921,
      "imma": 2922,
      "resour": 2923,
      "resol": 2924,
      "resemb": 2925,
      "reshap": 2926,
      "concurrent": 2927,
      "connection": 2928,
      "##cci": 2929,
      "partic": 2930,
      "##ultation": 2931,
      "coded": 2932,
      "anytime": 2933,
      "anymore": 2934,
      "reply": 2935,
      "repeated": 2936,
      "##izing": 2937,
      "epocj": 2938,
      "plac": 2939,
      "place": 2940,
      "placed": 2941,
      "platform": 2942,
      "plainly": 2943,
      "plateaus": 2944,
      "##orts": 2945,
      "##ortly": 2946,
      "##ortant": 2947,
      "cheaper": 2948,
      "atm": 2949,
      "attem": 2950,
      "shap": 2951,
      "sheee": 2952,
      "shared": 2953,
      "shoud": 2954,
      "shortly": 2955,
      "accidentally": 2956,
      "##using": 2957,
      "excu": 2958,
      "usbmit": 2959,
      "usual": 2960,
      "usually": 2961,
      "updates": 2962,
      "union": 2963,
      "uniqu": 2964,
      "unex": 2965,
      "unbalanced": 2966,
      "unfix": 2967,
      "unrecogn": 2968,
      "brna": 2969,
      "bruh": 2970,
      "pasting": 2971,
      "paean": 2972,
      "pages": 2973,
      "resulted": 2974,
      "outside": 2975,
      "##pty": 2976,
      "##pting": 2977,
      "somewhere": 2978,
      "thankful": 2979,
      "thankies": 2980,
      "thanksss": 2981,
      "clone": 2982,
      "finetun": 2983,
      "magn": 2984,
      "machines": 2985,
      "##ics": 2986,
      "##ication": 2987,
      "##icles": 2988,
      "##icitly": 2989,
      "yeahh": 2990,
      "addition": 2991,
      "allowing": 2992,
      "allowed": 2993,
      "base": 2994,
      "come": 2995,
      "coming": 2996,
      "comap": 2997,
      "comple": 2998,
      "comments": 2999,
      "##essure": 3000,
      "##essfull": 3001,
      "goodnight": 3002,
      "goodness": 3003,
      "asap": 3004,
      "asking": 3005,
      "asks": 3006,
      "hows": 3007,
      "##iled": 3008,
      "##ilities": 3009,
      "training96": 3010,
      "frame": 3011,
      "lead": 3012,
      "lemm": 3013,
      "leave": 3014,
      "leader": 3015,
      "leaning": 3016,
      "leaky": 3017,
      "legible": 3018,
      "##anded": 3019,
      "differences": 3020,
      "abt": 3021,
      "batches": 3022,
      "couldnt": 3023,
      "##quent": 3024,
      "hahahahah": 3025,
      "priv": 3026,
      "pressure": 3027,
      "##ghing": 3028,
      "dataloader": 3029,
      "##etheless": 3030,
      "classes": 3031,
      "intent": 3032,
      "differently": 3033,
      "hear": 3034,
      "simple": 3035,
      "simcse": 3036,
      "looked": 3037,
      "noon": 3038,
      "noice": 3039,
      "supremem": 3040,
      "confusing": 3041,
      "afk": 3042,
      "feedback": 3043,
      "feasible": 3044,
      "highe": 3045,
      "highly": 3046,
      "overly": 3047,
      "overwrit": 3048,
      "starts": 3049,
      "disco": 3050,
      "heloo": 3051,
      "hash": 3052,
      "##upied": 3053,
      "##ended": 3054,
      "actual": 3055,
      "bypass": 3056,
      "byte": 3057,
      "gucci": 3058,
      "accuracies": 3059,
      "discussed": 3060,
      "setup": 3061,
      "useful": 3062,
      "##ivation": 3063,
      "important": 3064,
      "accuracy99": 3065,
      "verify": 3066,
      "##ects": 3067,
      "##ageable": 3068,
      "everyhting": 3069,
      "waited": 3070,
      "safe": 3071,
      "yesss": 3072,
      "toward": 3073,
      "drops": 3074,
      "dropped": 3075,
      "dropping": 3076,
      "identif": 3077,
      "minus": 3078,
      "minds": 3079,
      "minimal": 3080,
      "minima": 3081,
      "tune": 3082,
      "##race": 3083,
      "device": 3084,
      "dependent": 3085,
      "demand": 3086,
      "knowled": 3087,
      "manageable": 3088,
      "quit": 3089,
      "quiet": 3090,
      "news": 3091,
      "newpage": 3092,
      "meaningful": 3093,
      "agree": 3094,
      "permits": 3095,
      "spot": 3096,
      "spend": 3097,
      "spacing": 3098,
      "spatial": 3099,
      "itself": 3100,
      "ame": 3101,
      "letting": 3102,
      "##ugs": 3103,
      "##ground": 3104,
      "reads": 3105,
      "seeds": 3106,
      "hahaa": 3107,
      "expire": 3108,
      "express": 3109,
      "expanded": 3110,
      "generating": 3111,
      "generations": 3112,
      "generative": 3113,
      "enum": 3114,
      "ensure": 3115,
      "enhance": 3116,
      "pip": 3117,
      "pieces": 3118,
      "pictures": 3119,
      "##ulling": 3120,
      "##ists": 3121,
      "yeaaaah": 3122,
      "yeaaah": 3123,
      "feeling": 3124,
      "15😬": 3125,
      "calls": 3126,
      "dimens": 3127,
      "slice": 3128,
      "slides": 3129,
      "##loss": 3130,
      "##aborator": 3131,
      "became": 3132,
      "5047": 3133,
      "backward": 3134,
      "background": 3135,
      "grid": 3136,
      "remotely": 3137,
      "10epo": 3138,
      "naming": 3139,
      "url": 3140,
      "loops": 3141,
      "sequences": 3142,
      "finalized": 3143,
      "whichever": 3144,
      "winfreya": 3145,
      "##ffed": 3146,
      "themsel": 3147,
      "##ours": 3148,
      "struc": 3149,
      "strange": 3150,
      "continues": 3151,
      "contains": 3152,
      "control": 3153,
      "30min": 3154,
      "##uely": 3155,
      "##agged": 3156,
      "inputs": 3157,
      "##eeeee": 3158,
      "##eeeeeee": 3159,
      "probable": 3160,
      "validation98": 3161,
      "optimal": 3162,
      "optimistic": 3163,
      "against": 3164,
      "folks": 3165,
      "fogured": 3166,
      "following": 3167,
      "niceeee": 3168,
      "relu": 3169,
      "reliable": 3170,
      "relativ": 3171,
      "smooth": 3172,
      "##dings": 3173,
      "##ardize": 3174,
      "pretrain": 3175,
      "temp": 3176,
      "10000": 3177,
      "mentions": 3178,
      "oopss": 3179,
      "school": 3180,
      "experimenting": 3181,
      "seemed": 3182,
      "commnet": 3183,
      "didnt": 3184,
      "065": 3185,
      "067": 3186,
      "06443": 3187,
      "messy": 3188,
      "messing": 3189,
      "messed": 3190,
      "messes": 3191,
      "messages": 3192,
      "ooohhh": 3193,
      "sending": 3194,
      "type": 3195,
      "wowow": 3196,
      "wowww": 3197,
      "improves": 3198,
      "cudnnple": 3199,
      "dropouts": 3200,
      "numbered": 3201,
      "schedulers": 3202,
      "reruns": 3203,
      "8907": 3204,
      "8914": 3205,
      "bump": 3206,
      "creating": 3207,
      "creative": 3208,
      "elise": 3209,
      "longer": 3210,
      "##ructure": 3211,
      "consuming": 3212,
      "consultation": 3213,
      "header": 3214,
      "headers": 3215,
      "probabilities": 3216,
      "visuals": 3217,
      "ahead": 3218,
      "ahahhah": 3219,
      "cost": 3220,
      "colab": 3221,
      "coincid": 3222,
      "utils": 3223,
      "##ialble": 3224,
      "indep": 3225,
      "index": 3226,
      "indeed": 3227,
      "segmented": 3228,
      "preds": 3229,
      "interested": 3230,
      "writeup": 3231,
      "slowly": 3232,
      "groupchat": 3233,
      "optimized": 3234,
      "057": 3235,
      "0543": 3236,
      "209": 3237,
      "averages": 3238,
      "augmented": 3239,
      "funny": 3240,
      "oohh": 3241,
      "oohhh": 3242,
      "sshing": 3243,
      "terminated": 3244,
      "terminating": 3245,
      "##6871": 3246,
      "ohhhh": 3247,
      "ohhhhh": 3248,
      "ohhhhhh": 3249,
      "reprot": 3250,
      "represnting": 3251,
      "reproduc": 3252,
      "complet": 3253,
      "compile": 3254,
      "comprehensive": 3255,
      "comparis": 3256,
      "compiled": 3257,
      "posts": 3258,
      "posted": 3259,
      "doesnt": 3260,
      "lowering": 3261,
      "explanation": 3262,
      "explicitly": 3263,
      "thoughtful": 3264,
      "projects": 3265,
      "interestinggg": 3266,
      "0036": 3267,
      "0022": 3268,
      "12am": 3269,
      "1200": 3270,
      "768x10": 3271,
      "below": 3272,
      "filling": 3273,
      "filled": 3274,
      "matmul": 3275,
      "misread": 3276,
      "mispl": 3277,
      "missing": 3278,
      "miserable": 3279,
      "songs": 3280,
      "yayay": 3281,
      "yayayay": 3282,
      "##matized": 3283,
      "##24747": 3284,
      "interval": 3285,
      "intersection": 3286,
      "office": 3287,
      "solves": 3288,
      "showing": 3289,
      "showed": 3290,
      "guessing": 3291,
      "guessed": 3292,
      "wrongly": 3293,
      "technically": 3294,
      "downloaded": 3295,
      "augmentations": 3296,
      "actively": 3297,
      "activations": 3298,
      "targets": 3299,
      "avoid": 3300,
      "avialble": 3301,
      "coools": 3302,
      "crossentropy": 3303,
      "early": 3304,
      "tasks": 3305,
      "##aaa": 3306,
      "##ntax": 3307,
      "whoever": 3308,
      "sometime": 3309,
      "paste": 3310,
      "pythonhas": 3311,
      "similarly": 3312,
      "installing": 3313,
      "installed": 3314,
      "become": 3315,
      "consistent": 3316,
      "breaking": 3317,
      "tmrw": 3318,
      "86400": 3319,
      "8662": 3320,
      "blank": 3321,
      "blanks": 3322,
      "blurb": 3323,
      "caused": 3324,
      "embrace": 3325,
      "merged": 3326,
      "normally": 3327,
      "rows": 3328,
      "swa": 3329,
      "swap": 3330,
      "##pected": 3331,
      "chars": 3332,
      "resubmitted": 3333,
      "closest": 3334,
      "basically": 3335,
      "strategy": 3336,
      "typos": 3337,
      "256x3": 3338,
      "joined": 3339,
      "cools": 3340,
      "momentum": 3341,
      "seconds": 3342,
      "submissions": 3343,
      "071": 3344,
      "0186": 3345,
      "01520": 3346,
      "0194": 3347,
      "3000": 3348,
      "9931": 3349,
      "assuming": 3350,
      "appear": 3351,
      "appreci": 3352,
      "blog": 3353,
      "blobs": 3354,
      "crank": 3355,
      "crunch": 3356,
      "credits": 3357,
      "criterion": 3358,
      "cleaning": 3359,
      "copied": 3360,
      "crawling": 3361,
      "cracked": 3362,
      "epco": 3363,
      "empty": 3364,
      "jsut": 3365,
      "matching": 3366,
      "matched": 3367,
      "nodes": 3368,
      "previous": 3369,
      "scrupt": 3370,
      "scary": 3371,
      "scratch": 3372,
      "science": 3373,
      "serve": 3374,
      "##😳😳😳": 3375,
      "##books": 3376,
      "##97479": 3377,
      "answers": 3378,
      "item2": 3379,
      "initialization": 3380,
      "initialisation": 3381,
      "##ahahahah": 3382,
      "stops": 3383,
      "okieee": 3384,
      "okieeeee": 3385,
      "notebook": 3386,
      "notebooks": 3387,
      "extended": 3388,
      "computationally": 3389,
      "feature": 3390,
      "decrease": 3391,
      "decreases": 3392,
      "##ribution": 3393,
      "graphs": 3394,
      "graphics": 3395,
      "removed": 3396,
      "removes": 3397,
      "niceeeeee": 3398,
      "arguing": 3399,
      "tytyty": 3400,
      "improvement": 3401,
      "improvements": 3402,
      "individually": 3403,
      "combining": 3404,
      "combination": 3405,
      "embeddings": 3406,
      "character": 3407,
      "correctly": 3408,
      "limits": 3409,
      "returns": 3410,
      "incompatible": 3411,
      "1136": 3412,
      "2619": 3413,
      "across": 3414,
      "accept": 3415,
      "acivation": 3416,
      "aws": 3417,
      "awkward": 3418,
      "awake": 3419,
      "ahhhh": 3420,
      "citet": 3421,
      "citation": 3422,
      "citations": 3423,
      "cutoff": 3424,
      "draw": 3425,
      "draft": 3426,
      "drawing": 3427,
      "effect": 3428,
      "effici": 3429,
      "efforts": 3430,
      "fluke": 3431,
      "flipp": 3432,
      "flagged": 3433,
      "goofy": 3434,
      "gpt2": 3435,
      "object": 3436,
      "occupy": 3437,
      "occurs": 3438,
      "occupied": 3439,
      "passing": 3440,
      "sync": 3441,
      "system": 3442,
      "syntax": 3443,
      "uhhhhh": 3444,
      "uhhhhhhh": 3445,
      "##linear": 3446,
      "##vised": 3447,
      "##ucinates": 3448,
      "##uded": 3449,
      "##pecially": 3450,
      "##4391": 3451,
      "happens": 3452,
      "mystery": 3453,
      "convergence": 3454,
      "anywhere": 3455,
      "replacing": 3456,
      "playing": 3457,
      "somehting": 3458,
      "cloning": 3459,
      "cloned": 3460,
      "clones": 3461,
      "findings": 3462,
      "texts": 3463,
      "graded": 3464,
      "translate": 3465,
      "explaining": 3466,
      "explainable": 3467,
      "yayyyy": 3468,
      "breakfast": 3469,
      "normalization": 3470,
      "switching": 3471,
      "switched": 3472,
      "clearpage": 3473,
      "answering": 3474,
      "reflecting": 3475,
      "extrapolated": 3476,
      "heheh": 3477,
      "emojis": 3478,
      "flexible": 3479,
      "personal": 3480,
      "personally": 3481,
      "recommended": 3482,
      "0219": 3483,
      "0005": 3484,
      "00001": 3485,
      "192": 3486,
      "512": 3487,
      "737": 3488,
      "988": 3489,
      "authent": 3490,
      "automatically": 3491,
      "bibtex": 3492,
      "bolded": 3493,
      "further": 3494,
      "month": 3495,
      "monday": 3496,
      "nonetheless": 3497,
      "nonlinear": 3498,
      "portion": 3499,
      "portions": 3500,
      "sketch": 3501,
      "skulling": 3502,
      "satisfact": 3503,
      "saturday": 3504,
      "ummmm": 3505,
      "😮😮😮": 3506,
      "##yayayayy": 3507,
      "include": 3508,
      "included": 3509,
      "forums": 3510,
      "revert": 3511,
      "reverse": 3512,
      "logistic": 3513,
      "stole": 3514,
      "stochast": 3515,
      "stored": 3516,
      "storage": 3517,
      "stands": 3518,
      "standardize": 3519,
      "stacking": 3520,
      "stacked": 3521,
      "subpart": 3522,
      "sucks": 3523,
      "response": 3524,
      "responsibility": 3525,
      "respective": 3526,
      "hahha": 3527,
      "hahhahahahah": 3528,
      "example": 3529,
      "examples": 3530,
      "unset": 3531,
      "unsuper": 3532,
      "pairs": 3533,
      "clarifying": 3534,
      "articles": 3535,
      "artists": 3536,
      "prompt": 3537,
      "promising": 3538,
      "priority": 3539,
      "simultaneous": 3540,
      "affects": 3541,
      "guarantee": 3542,
      "guaranteed": 3543,
      "debug": 3544,
      "debugging": 3545,
      "perfecto": 3546,
      "picking": 3547,
      "requirement": 3548,
      "0627": 3549,
      "8942": 3550,
      "8944": 3551,
      "8952": 3552,
      "8957": 3553,
      "considering": 3554,
      "considered": 3555,
      "collect": 3556,
      "collaborator": 3557,
      "covering": 3558,
      "transformers": 3559,
      "transformations": 3560,
      "defining": 3561,
      "definitely": 3562,
      "0089": 3563,
      "wondering": 3564,
      "solution🥺": 3565,
      "captive": 3566,
      "captures": 3567,
      "exceeds": 3568,
      "exceeded": 3569,
      "calculate": 3570,
      "calculation": 3571,
      "statistics": 3572,
      "statistical": 3573,
      "obscen": 3574,
      "observation": 3575,
      "happened": 3576,
      "environment": 3577,
      "conflicts": 3578,
      "085": 3579,
      "183": 3580,
      "2706": 3581,
      "4x4": 3582,
      "5hours": 3583,
      "520pm": 3584,
      "692": 3585,
      "aaaaaa": 3586,
      "a5000": 3587,
      "benchmar": 3588,
      "bottom": 3589,
      "body": 3590,
      "carried": 3591,
      "culprit": 3592,
      "coooools": 3593,
      "cirterion": 3594,
      "cache": 3595,
      "drugs": 3596,
      "dominant": 3597,
      "distribution": 3598,
      "driver": 3599,
      "directly": 3600,
      "especially": 3601,
      "eyes": 3602,
      "essentially": 3603,
      "frequent": 3604,
      "future": 3605,
      "felt": 3606,
      "fasic": 3607,
      "flying": 3608,
      "glad": 3609,
      "gpus": 3610,
      "gimme": 3611,
      "grab": 3612,
      "hsould": 3613,
      "huhhhhh": 3614,
      "half": 3615,
      "hallucinates": 3616,
      "handle": 3617,
      "human": 3618,
      "irrele": 3619,
      "jcheung": 3620,
      "jupyterhub": 3621,
      "kidding": 3622,
      "launch": 3623,
      "lyk": 3624,
      "leniently": 3625,
      "lesgoooo": 3626,
      "lunar": 3627,
      "language": 3628,
      "laughing": 3629,
      "largely": 3630,
      "mknj": 3631,
      "metric": 3632,
      "money": 3633,
      "massive": 3634,
      "mistyped": 3635,
      "naiseeee": 3636,
      "ntg": 3637,
      "noob": 3638,
      "ouchy": 3639,
      "psych": 3640,
      "phrase": 3641,
      "potentially": 3642,
      "piggy": 3643,
      "purpose": 3644,
      "padding": 3645,
      "pending": 3646,
      "publish": 3647,
      "purely": 3648,
      "pshed": 3649,
      "queue": 3650,
      "rollled": 3651,
      "rotation": 3652,
      "risk": 3653,
      "rapidly": 3654,
      "sanity": 3655,
      "selects": 3656,
      "sctructure": 3657,
      "square": 3658,
      "scuffed": 3659,
      "sensitive": 3660,
      "tbd": 3661,
      "tiny": 3662,
      "talk": 3663,
      "tenses": 3664,
      "viewing": 3665,
      "vaguely": 3666,
      "woah": 3667,
      "weren": 3668,
      "wokring": 3669,
      "wiht": 3670,
      "xavier": 3671,
      "yields": 3672,
      "yasssss": 3673,
      "yooooo": 3674,
      "yaaahhh": 3675,
      "zero": 3676,
      "😍😍😍": 3677,
      "😭🙌🏼": 3678,
      "😮💨😴": 3679,
      "😳😳😳😳😳😳": 3680,
      "🤔🤓😅": 3681,
      "🫠🫠🫠": 3682,
      "##hseed": 3683,
      "##29897479": 3684,
      "##2916871": 3685,
      "##814391": 3686,
      "##57751": 3687,
      "##6792916871": 3688,
      "invalid": 3689,
      "information": 3690,
      "insights": 3691,
      "incredibly": 3692,
      "inheritance": 3693,
      "reaches": 3694,
      "recognize": 3695,
      "reinitializing": 3696,
      "traumatized": 3697,
      "beyond": 3698,
      "seperately": 3699,
      "sepearte": 3700,
      "separate": 3701,
      "choices": 3702,
      "stupid": 3703,
      "stddevs": 3704,
      "##ayyayayyayayayy": 3705,
      "successfull": 3706,
      "workignon": 3707,
      "neeeeeeeeeeee": 3708,
      "necessarily": 3709,
      "trainloop": 3710,
      "although": 3711,
      "memeory": 3712,
      "modifications": 3713,
      "myself": 3714,
      "organize": 3715,
      "resources": 3716,
      "resolving": 3717,
      "resembles": 3718,
      "reshaping": 3719,
      "concurrently": 3720,
      "particular": 3721,
      "places": 3722,
      "attempting": 3723,
      "shape": 3724,
      "sheeeesh": 3725,
      "shoudl": 3726,
      "excuse": 3727,
      "unique": 3728,
      "unexpected": 3729,
      "unfixable": 3730,
      "unrecognized": 3731,
      "brnach": 3732,
      "finetune": 3733,
      "magnitude": 3734,
      "comapred": 3735,
      "complexity": 3736,
      "framework": 3737,
      "lemme": 3738,
      "leaderboard": 3739,
      "private": 3740,
      "noiceeee": 3741,
      "overwrites": 3742,
      "discovered": 3743,
      "towards": 3744,
      "identified": 3745,
      "mindset": 3746,
      "knowledge": 3747,
      "expirements": 3748,
      "expressed": 3749,
      "enumerate": 3750,
      "enhancements": 3751,
      "dimension": 3752,
      "10epochs": 3753,
      "themselves": 3754,
      "strucutre": 3755,
      "30minutes": 3756,
      "relatively": 3757,
      "smoothly": 3758,
      "pretrained": 3759,
      "064436792916871": 3760,
      "wowwwww": 3761,
      "cudnnplease": 3762,
      "ahahhaha": 3763,
      "coincidence": 3764,
      "independent": 3765,
      "05432": 3766,
      "reproducible": 3767,
      "completed": 3768,
      "comparison": 3769,
      "interestinggggg": 3770,
      "misplaced": 3771,
      "yayayayayyayayyayayayy": 3772,
      "##24747814391": 3773,
      "crossentropyloss": 3774,
      "pythonhashseed": 3775,
      "256x3500": 3776,
      "018624747814391": 3777,
      "0152029897479": 3778,
      "appreciate": 3779,
      "epcosh": 3780,
      "acceptable": 3781,
      "efficiency": 3782,
      "flipping": 3783,
      "occupying": 3784,
      "authentication": 3785,
      "satisfactory": 3786,
      "stochastic": 3787,
      "subparts": 3788,
      "unsupervised": 3789,
      "simultaneously": 3790,
      "obscene": 3791,
      "benchmark": 3792,
      "irrelevant": 3793,
      "mknjtes": 3794,
      "naiseeeeee": 3795,
      "psyching": 3796,
      "published": 3797,
      "successfully": 3798,
      "neeeeeeeeeeeeed": 3799,
      "06443679291687161": 3800,
      "01862474781439139": 3801,
      "015202989747957751": 3802
    }
  }
}